#version: 0.2 - Trained by `huggingface/tokenizers`
Ġ t
i n
Ġ a
o n
h e
r e
t i
e r
o r
Ġt he
e n
Ġ s
a l
Ġ o
a n
ti on
e s
a t
in g
i s
Ġ c
e d
a r
Ġ p
Ġ w
Ġa n
Ġ f
i t
Ġo f
r o
e t
Ġ d
Ġ in
Ġ m
Ġan d
l e
Ġ b
Ġ (
a tion
a s
i c
en t
e l
Ġt o
Ġ e
Ġ re
c e
m p
Ġ n
u s
e c
Ġ 2
Ġt h
u r
a c
o d
Ġ is
Ġ T
Ġ l
s t
Ġf or
u t
Ġ S
Ġ A
u n
l y
r a
it h
Ġa l
i m
u l
Ġ I
0 1
v e
Ġ C
Ġ on
i g
Ġ g
o l
o w
Ġ 1
Ġ h
Ġc on
o t
v er
s i
Ġ M
Ġw e
re s
a b
i l
a g
Ġ P
Ġp ro
Ġc o
Ġ L
c h
Ġth at
Ġa s
ti c
Ġ v
Ġ2 01
Ġw ith
r i
Ġe x
Ġ W
0 0
u m
Ġs t
f or
ĠI n
s e
t er
at e
Ġ R
t he
o m
Ġ ,
q u
p p
od el
a m
Ġ us
Ġ F
i d
re n
i z
t s
Ġ =
Ġ D
i f
an d
Ġ )
p er
Ġb e
u re
Ġa re
ĠT he
it y
Ġ E
Ġ N
Ġ B
. ,
ac h
i r
e m
Ġm odel
for m
f e
or d
Ġb y
) .
Ġ le
o re
Ġ .
or k
Ġ G
c es
Ġs u
fe ren
o s
ar n
an g
Ġ r
ec t
a in
Ġco mp
in e
o c
c tion
ro m
e p
m ent
ti ve
Ġ H
is t
Ġ i
a y
c t
ra in
Ġw h
Ġ et
ic h
Ġ it
) ,
d i
Ġ k
ation s
o g
er s
t h
Ġf rom
et w
Ġd at
ag e
re d
en ce
ar i
e x
ti m
Ġa pp
un d
Ġp ar
ab le
Ġc an
Ġth is
a d
Ġ J
Ġs e
ig h
at ed
ĠW e
al ly
Ġre s
i v
arn ing
a mp
an ce
Ġ O
Ġs h
o f
Ġc l
Ġn e
Ġ 0
Ġ K
Ġs et
t o
Ġa t
r an
b le
g or
Ġs p
en er
u tion
a p
en d
Ġo ur
es t
Ġ 3
Ġwh ich
et h
ri b
al u
ing s
eth od
o mp
Ġp er
Ġw he
d u
an t
res ent
ith m
a k
Ġd e
ar d
feren ce
v el
Ġn ot
Ġcon t
al l
Ġ2 00
gor ithm
r u
Ġ [
Ġre p
o p
ĠP ro
ur al
en ti
ar g
Ġt rain
Ġ or
Ġa d
Ġal l
ation al
f ic
Ġo b
Ġw ord
Ġf e
si on
o ur
ag es
l es
Ġdat a
Ġ V
Ġg ener
Ġe ach
Ġa c
etw ork
Ġa r
Ġ un
ac t
b er
ent s
as ed
ig n
Ġ +
ex t
the r
2 01
i e
Ġi mp
Ġp o
Ġapp ro
iz ation
ic al
i on
Ġex p
Ġm ethod
Ġc h
he r
Ġ U
Ġ x
a ve
Ġd ist
u res
as k
un ction
Ġd if
u al
Ġs c
ran s
en c
T he
Ġle arning
ra m
Ġres ul
ar y
u p
as e
Ġsh ow
o us
Ġc or
tion s
on g
el l
Ġe v
w o
u d
i es
ces s
Ġ 4
I n
a x
Ġal gorithm
Ġ Y
or t
Ġus ing
Ġs y
a ti
Ġcl as
1 0
or s
ĠT h
il l
Ġp re
Ġper form
p h
Ġfe at
Ġn etwork
p ut
in t
m b
ĠC on
Ġ qu
is tic
at es
i k
s o
ang u
es s
ol l
Ġf unction
a tive
Ġh ave
igh t
ble m
Ġus e
s s
Ġo p
Ġ 5
Ġre l
Ġmodel s
Ġ y
Ġ X
form ation
c l
Ġv ari
Ġp a
o und
r ic
u g
. ;
Ġt wo
st em
am et
rib ution
Ġrep resent
i al
ab il
t e
Ġ |
o se
c on
ter n
c ur
red ic
on d
re e
s u
ce ed
ec tion
Ġtrain ing
Ġo ver
W e
Ġg ra
ul ti
as et
t r
e en
Ġd is
Ġm at
Ġt ask
o ut
um ber
er m
omp ut
angu age
Ġo ut
ceed ings
g e
ig ure
Ġ Z
Ġpro blem
ab el
n i
amp le
Ġdif feren
Ġsu b
Ġpro p
etw een
ot h
Ġh as
ru ct
ar ch
Ġ j
l ic
Ġn o
t en
iz e
y p
t ing
ĠF or
Ġwhe re
a us
a re
Ġm e
f f
Ġal so
ac k
Ġt im
ec h
Ġop tim
he n
Ġus ed
9 9
Ġt rans
Ġ Ġ
a v
s er
n ow
ĠA n
oll ow
Ġw ork
Ġon e
ĠL e
o st
am e
ep end
Ġresul ts
ul ar
Ġm ore
t ain
Ġp redic
i p
a ce
Ġth an
i a
per im
Ġb etween
Ġd es
Ġsu ch
im il
ver s
o v
di tion
1 2
ir st
s is
Ġa b
if ic
ĠTh is
t y
id e
Ġdat aset
Ġn umber
Ġcomp ut
Ġon ly
Ġdist ribution
Ġo ther
ĠPro ceedings
at ing
imil ar
Ġs ent
as t
Ġre g
Ġdifferen t
Ġcon st
Ġd o
abil ity
si d
p ec
l o
om e
Ġp ages
n ot
Ġ ro
en s
Ġre c
l ed
ol ution
iv en
Ġf ollow
1 1
al y
in d
v es
i ti
ĠC omput
Ġ Ċ
a il
ul d
en g
Ġ es
ug h
ĠC h
iz ed
Ġpar amet
p ro
ing u
Ġ im
Ġd ec
i re
Ġperform ance
Ġm ulti
Ġtim e
Ġsy stem
Ġ 6
el y
oc i
e ver
Ġthe se
Ġv ect
Ġfeat ures
Ġclas si
Ġ ver
Ġv alu
) :
i le
tic al
Ġas s
Ġd et
S T
Ġit s
ed d
ati s
Ġl abel
is e
w e
f in
Ġ201 6
he re
i x
i mp
Ġdis c
ĠCon ference
Ġfor m
ol d
os ed
b ased
Ġin formation
le x
Ġ if
or y
Ġl arg
1 5
and om
N N
us t
Ġm in
Ġmethod s
Ġes tim
Ġa g
Ġ201 7
n e
i er
ingu istic
p ar
ach ine
l l
Ġ {
ine ar
amp les
Ġev alu
Ġpro b
Ġin d
Ġwhe n
is h
i ed
Ġword s
Ġb ut
is ion
c ed
Ġn on
Ġne ural
vel y
Ġex perim
Ġthe n
er r
Ġ201 5
Ġle arn
l ation
Ġappro ach
Ġ Q
Ġl og
ment s
enc y
Ġb oth
j ec
mb edd
x im
om ain
s h
os s
ar k
Ġf irst
Ġt est
Ġs imilar
ar t
Ġthe ir
v ed
v i
Ġp l
Ġb ound
w ard
u b
Ġst ate
ri x
in al
em an
1 6
Ġs ame
u e
si tion
m m
2 0
Ġ z
en ces
st r
1 3
Ġin ter
1 4
Ġin to
ord er
Ġm an
l ing
s ing
2 00
und er
Ġb ased
Ġ201 4
Ġe mbedd
Ġin st
or m
i an
Ġ u
Ġin put
f fic
Ġnetwork s
cess ing
ow ever
Ġimp ro
i ent
fic ation
ĠS t
o od
ĠN e
Ġan aly
Ġst ruct
Ġdes c
Ġd en
1 7
Ġm ax
Ġg iven
Ġin c
ay er
an k
e v
al ity
as es
m an
Ġcon sid
E E
Ġl anguage
en sion
Ġan y
Ġ he
Ġgra ph
Ġr andom
ĠLe arning
eman tic
Ġ :
t ro
od e
Ġpro v
Ġthe re
Ġto p
ac y
Ġ1 0
a pp
Ġw ill
im ension
X iv
o ver
Ġt yp
Ġs m
Ġpa per
an ces
inguistic s
Ġ up
ĠA ss
o uld
res p
he s
j ect
Ġw as
Ġse qu
it e
Ġk now
Ġ under
Ġs ome
F igure
le ct
Ġclas s
t ed
Ġ -
Ġob ser
Ġ 7
ren t
Ġmat rix
p r
it s
w ith
w here
1 8
at or
f er
arg et
Ġs ign
m a
er n
cl ud
ĠComput ational
ol og
ot e
2 5
Ġt erm
Ġ err
Ġgener al
per v
as s
Ġs imp
Ġne w
oci ation
ie w
Ġpa ir
y n
Ġd epend
ol ic
Ġex ample
is ed
ro ss
tern ational
Ġp r
ce p
Ġac cur
Ġ en
Ġprop osed
le ment
Ġl ow
Ġfeat ure
ĠA l
Ġ201 8
in es
Ġ201 3
resp ond
ti v
Ġb as
at ural
Ġsent ence
et ter
Ġt ext
Ġ 8
ti es
o un
C L
Ġh igh
Ġl oss
in ce
o b
Ġst r
Ġlarg e
f ul
Ġappro xim
us ter
1 9
Ġme an
ĠL inguistics
um e
Ġ1 99
Ġa ut
di ent
Ġf act
o int
Ġvect or
ĠA d
Ġd omain
Ġob tain
s p
ak e
Ġ enti
tro du
d e
Ġs emantic
Ġst ep
a red
Ġm ost
et ric
um an
g ram
s c
Ġbe en
i b
P ro
res s
res sion
Ġc ase
f ore
ĠAss ociation
Ġcor re
5 0
Ġw ell
o ve
w h
Ġp h
e w
led ge
2 2
Ġs ize
Ġsp ace
Ġcont ext
Ġt arget
Ġs um
um ent
ver age
Ġl oc
Ġprob ability
on e
Ġfollow ing
Ġre qu
Ġe ff
perv ised
an n
aus e
dition al
vi ous
T able
ĠF igure
Ġl ik
Ġout put
] .
ec ond
Ġar Xiv
ffic ient
Ġparamet ers
Ġe qu
m e
Ġsp ec
Ġde fin
s et
Ġcor respond
Ġex tr
Ġalgorithm s
th at
ĠIn ternational
Ġ order
ac tion
ĠE n
Ġ enc
Ġthe y
Ġstruct ure
Ġ201 2
Ġc ol
o u
Ġme as
Ġg ro
Ġsm all
Ġl inear
ĠZ h
Ġd ire
at a
our ce
Ġcor p
Ġl at
Ġb ec
Ġ &
ten tion
Ġ) ,
Ġconsid er
Ġ q
00 0
Ġ }
Ġ201 1
Ġp resent
ĠR es
3 0
ĠL i
Ġtask s
T h
Ġp at
ver g
Ġmin im
Ġanaly sis
Ġ1 9
Ġwh ile
ch ie
od er
Ġan not
Ġb etter
Ġm ay
re t
Ġ id
Ġexperim ents
Ġqu es
2 4
o k
ur ther
Ġim age
Ġvalu e
C M
Ġob jec
C on
Ġf ram
o ch
Ġs ing
ap t
ti vely
m odel
i el
Ġco mm
o ugh
Ġpro du
Ġa chie
Ġin clud
ĠH owever
Ġ 9
Ġconst rain
and ard
s w
ĠE x
os si
ro p
Ġerr or
Ġclassi fication
al e
el ine
Ġcon s
ore m
Ġpro cess
Ġe mp
ST M
a tic
ab les
2 3
Ġshow n
Ġcl uster
ĠT o
Ġp olic
Ġrepresent ation
4 0
Ġimpro ve
o sition
Ġ201 0
] ,
ect ed
Ġwe re
Ġsy n
l et
Ġaccur acy
Ġn orm
Ġcont ain
L P
Ġshow s
Ġin te
Ġb est
a i
od es
Ġgra dient
Ġt r
y stem
Ġit er
Ġs o
d en
he d
Ġoptim ization
u ch
i or
t rain
w ord
rib ut
t t
s k
E R
Ġad d
8 0
per form
Ġp ri
Ġco mb
Ġa ction
al s
Ġd oc
ĠR e
Ġsequ ence
Ġtrans lation
Ġsu pp
N et
ĠI t
ĠPro cessing
f y
Ġcomp lex
Ġ ed
l ish
m ar
ĠA s
Ġth ree
Ġl ayer
Ġpar tic
Ġs amp
Ġac c
le ction
v ing
v ari
iti al
v alu
ĠT able
Ġcomp ar
Ġar g
b y
2 8
2 6
c i
ra ph
on s
Ġmax im
p le
ĠO ur
Ġ >
b e
Ġexp l
m ax
ro ugh
o h
ĠL anguage
Ġsing le
Ġsent ences
as tic
Ġpre vious
it er
ĠD e
at ure
si tive
Ġinc re
Ġh ow
Ġs ol
p l
Ġf ind
ic s
ĠA r
ch it
3 3
in ts
n ess
e mp
Ġdataset s
Ġin trodu
Ġd i
ac ter
ang e
in k
2 7
ul t
Ġtrain ed
Ġde ep
e y
ul l
Ġdesc rib
si an
Ġcon v
ent ly
ar acter
Ġdo es
Ġc ur
ern el
ew ork
Ġvalu es
ĠS h
Ġres p
Ġrel ations
i ve
e ar
Ġp ossi
ac hes
iz ing
A R
c om
ĠNe ural
) )
. .
igh ts
6 0
an ti
Ġ) .
Ġrepresent ations
c k
Ġre m
Ġs olution
Ġm achine
ific ant
A N
ur ing
Ġd imension
Ġst andard
Ġid enti
Ġman y
ur n
Ġm od
ri p
Ġch o
enti al
l ine
Ġknow ledge
Ġne ed
Ġ200 9
Ġind ic
ĠM achine
Ġparamet er
Ġsystem s
w ise
3 5
Ġre du
Ġembedd ings
at ch
Ġcorp us
Ġwe ight
Ġr ank
verg ence
Ġs amples
Ġeff ec
si ve
Ġre al
/ /
2 9
z e
f ter
Ġ2 0
Ġimp ort
Ġt ra
Ġresul t
Ġa v
ĠS ection
tic s
Ġsc ore
Ġin ference
vel op
ve x
ic ally
iti es
Ġfunction s
7 5
il d
Ġat t
re g
Ġoptim al
og ni
Ġpredic tion
Ġpro per
Ġclassi f
a h
ir ical
Ġprov id
iel d
Ġevalu ation
Ġup d
Ġpolic y
re st
o res
Ġpo int
i tion
im in
en e
Ġst atis
Ġthe m
le vel
a o
ay s
Ġex t
u ally
Ġs econd
Ġt ree
Ġapp lic
c omp
R e
Ġh uman
vers ity
Ġw ould
is on
Ġa m
Ġs ample
Ġg o
v iew
Ġset ting
ate gor
Ġvect ors
Ġsign ificant
A A
as on
tt p
i j
wh ich
Ġse arch
1 00
Ġmeas ure
ay ers
par amet
Ġr ate
Ġ <
g lish
Ġse lect
F or
re qu
6 4
Ġall ow
sw er
ate g
is c
al id
Ġin itial
ti l
Ġat tention
oc k
Ġfram ework
Ġbec ause
yn am
3 4
Ġres pec
ĠO n
ogni tion
Ġdire ct
v ant
ystem s
Ġ ra
: //
Ġcomb in
Ġse e
Ġpossi ble
chit ect
ot her
i h
e arch
Ġb i
Ġim ages
7 0
b al
Ġex amples
Ġ /
m in
Ġb el
Ġset s
em on
Ġ ent
Ġreg ular
S A
Ġexperim ent
Ġwith out
Ġproblem s
is m
Ġv ia
olog y
Ġco st
Ġb l
su pervised
Ġch aracter
r y
ic e
aus sian
7 8
oc us
Ġa verage
l d
s on
f t
Ġ ]
Ġappro aches
Ġloc al
or p
Ġt ech
Ġembedd ing
t ell
ĠIn formation
C A
id den
Ġm ain
Th is
6 5
emon str
Ġr un
cep t
Ġpair s
Ġst ud
ak es
Ġterm s
Ġk ernel
Ġle vel
Ġab out
Ġver y
Ġh ig
n er
pr int
Ġs ource
Ġlat ent
ver y
Ġun i
u le
Ġs ection
Ġre t
y per
Ġvari ables
ĠA pp
is ual
C h
ĠU n
a ir
g ative
n al
Ġo per
Ġth rough
Ġmulti ple
f rom
Ġcorrespond ing
EE E
ri d
om atic
2 1
Ġg u
l og
Ġ200 8
8 5
Ġpartic ular
Ġm etric
ul ation
g es
Ġques tion
ni qu
0 5
g ment
im it
Ġbas eline
Ġm em
ix ed
Ġd er
Ġsp ar
Ġar chitect
in c
Ġs ince
Ġsp e
Ġde velop
P S
Ġt ag
Ġpo ints
Ġqu er
4 5
x i
lic it
Ġdefin ed
i red
our nal
Ġprop ose
Ġcons ist
Ġobjec tive
eng th
Ġsimilar ity
Ġgener ated
tell ig
en se
r ase
Ġor ig
us ion
l ow
L E
Ġex ist
Ġrespec tively
Ġde f
l ied
Ġsimp le
Ġlabel s
L e
ic k
ĠM e
um ents
a w
E x
Ġpo st
Ġev en
Ġro b
och astic
u di
er o
and id
8 9
od ing
Ġle x
Ġfollow s
of t
et s
en tion
Ġcomp on
ĠT rans
Ġh and
I N
e red
6 9
Ġstr ateg
7 9
ĠH e
ul es
Ġf ocus
A n
Ġpri or
epend ent
er tain
Ġcon f
3 9
vers ari
3 2
Ġab ove
ethod s
Ġrel ation
Ġlow er
Ġconv olution
at ely
i o
ĠR ec
Ġb u
ak ing
8 4
Ġn atural
Ġextr act
7 4
ĠI EEE
ay es
su mp
e ad
ti t
ol ume
Ġc ategor
in u
Ġdet erm
Ġf urther
iz es
A l
3 6
Ġpar ti
O ur
at ors
ĠAn n
a u
Ġrep ort
Ġd emonstr
Ġal ign
ĠM odel
Ġenti ty
Ġobser v
ro und
T o
Ġsamp ling
ail able
Ġ200 7
Ġcon n
v id
ru e
ver al
Ġcorre ct
at h
m o
Ġsc ores
Ġre ward
Ġpre print
ĠL et
201 6
d imension
Ġn ode
Ġh idden
ni versity
Ġapp ly
D A
ĠS ystems
ĠThe re
m er
p re
Ġsupp ort
ĠN atural
ĠS ch
in ally
8 8
enti ment
Ġtech niqu
versari al
Ġe very
M T
in ary
an s
Ġ `
l abel
Ġt re
a j
ĠS e
Ġwe ights
pec ific
Ġto k
con st
l ik
ul ts
S t
Ġp p
oun t
tellig ence
Ġnorm al
Ġrel ated
Ġdes ign
Ġass ign
7 6
Ġprov ide
201 7
Ġan swer
ĠAl gorithm
fic ial
Ġl ong
Ġden ot
Ġgro up
ĠW ork
Ġm uch
Ġpar t
Ġf ound
Ġd ynam
ti ce
Ġst ochastic
c ing
Ġimp lement
r al
ĠJ ournal
Ġre se
Ġco uld
Ġcont ro
ru ction
Ġl ayers
Ġimport ant
Ġcomplex ity
Ġdet ail
l p
feren ces
Ġdist ance
Ġorig inal
Ġc andid
Ġj oint
t ask
Ġm ake
Ġs atis
Ġspec ific
h av
t on
8 6
Ġc apt
Ġn odes
Ġobtain ed
lo bal
7 3
ĠEn glish
Ġtop ic
el f
Ġse veral
Ġsh ould
Ġt emp
ord ing
Ġ end
Ġfact or
ro w
or g
ti ll
l u
Ġstud y
Ġle ad
Ġlearn ed
Ġcon c
Ġac ross
ĠI f
ow n
in s
Ġre st
Ġout perform
ĠC l
m ore
c cur
am es
Ġpo sitive
Ġdoc ument
Ġinte rest
c an
ĠS ci
5 5
al le
Ġtyp es
re p
angu ages
Ġtyp e
ĠG aussian
k now
Ġl imit
D P
Ġh yper
ech an
Ġ200 6
se qu
Ġdisc us
Ġno ise
g er
ĠS p
ĠAd v
i ly
Ġe fficient
ĠC omp
A T
h u
Ġlik e
ac tic
Ġinst ance
v en
Ġth ose
se e
tim e
Ġco un
Ġb ack
Ġ ;
Ġdistribution s
ĠC o
l is
et ing
Ġs ur
4 4
Ġprob abil
r imin
Ġw ay
of f
Ġw or
ih ood
w w
el ihood
ac tions
7 7
ĠW h
on al
Ġl ength
Ġcomp ared
Ġv alid
Ġdepend ency
E n
Ġas sump
Ġc all
ed ia
ann ing
ad e
Ġcomm on
Ġd ue
t al
Ġpar sing
Ġapproxim ation
l inear
ĠThe n
Ġus es
g ener
Ġevalu ate
Ġcur rent
Ġth us
Ġconstrain ts
il ity
Ġa fter
Ġc ross
Ġv isual
al c
as si
Ġb o
re l
Ġav ailable
as h
ar c
3 8
9 0
Ġag ent
le arning
at aset
ra w
L STM
Ġ1 00
Ġcomput e
S E
201 5
Ġcon vex
Ġre ason
Ġhig her
Ġpr ac
Ġapp lied
d er
ant e
ĠRes earch
Ġmat ch
st and
ed u
Ġpro gram
ĠL STM
Ġg re
it her
ut ure
ĠThe se
Ġgo al
Ġmem ory
3 7
Ġden ote
dimension al
Ġ( )
3 1
c ision
an ts
5 6
( )
Ġe as
ap s
Ġcomp are
Ġvari able
om m
ĠZh ang
Ġs im
ier arch
us tr
Ġcon vergence
Ġus er
or al
u k
n ing
ar ante
ech n
Ġt rue
Ġg ood
0 4
R L
ran k
Ġof ten
Ġpat tern
Ġf requ
t actic
Ġclassif ier
Ġdec ision
Ġre le
t ext
Ġre cur
8 7
O S
Ġestim ation
Ġse gment
9 5
ĠC hen
am b
Ġstr ong
th ough
Ġrob ust
if ied
for ce
igh b
Ġf ull
Ġse lection
Ġle ast
r it
Ġreg ression
echan ism
alle l
Ġgener ate
Ġqu ality
N I
6 6
Ġdef ine
ĠAnn ual
Ġf ixed
or ing
inu ous
r on
Ġpredic t
Ġc ases
Ġl ess
ut h
Ġpat h
di vid
Ġk ey
Ġqu anti
Ġaut omatic
A C
at her
ti ficial
ĠW ang
Ġ200 5
ex p
Ġsc al
yp ot
Ġdirect ly
Ġcontain s
Ġgener ation
ep ar
Ġsu c
Ġl anguages
train ing
Ġder iv
ĠM at
Ġp ers
ĠN ote
lo y
ĠU niversity
g et
O N
Ġac tiv
Ġst ates
Ġd uring
ric es
Ġestim ate
p o
ayes ian
m ark
Ġcon ference
Ġcon dition
b o
Ġpro ced
id ence
8 3
R E
ĠM ore
il ter
str act
Ġob ject
Ġarchitect ure
m ing
Ġmodel ing
d ist
b s
Ġin f
Ġconst ruct
h ip
Ġch all
Ġc ap
um n
Ġwith in
ati vely
Ġne gative
ĠE q
h old
Ġhe lp
Ġcontro l
6 7
ĠP ar
Ġass ume
Ġs entiment
4 9
Ġc re
Ġdet ection
Ġrec ognition
Ġev ent
M M
alc ul
Ġsum mar
D e
Ġinst ances
Ġv iew
ĠA CM
l er
Ġcomput ation
or a
ĠComput er
Ġobser ved
as ing
Ġ1 5
m ed
Ġad ditional
4 8
Ġcluster ing
I T
oh n
Ġquer y
Ġdescrib ed
c ent
Ġexp ected
Ġcont r
Ġad dition
ĠS u
i res
our ces
Ġsu g
Ġex act
e ach
Pro ceedings
Ġb inary
Ġs er
Ġrese arch
Ġ1 2
ĠO p
Ġs epar
Ġt ran
ac es
Ġsub set
A s
a z
Ġu til
N LP
Ġin v
th is
V M
Ġcompar ison
G D
ĠAdv ances
A M
Ġ201 9
Ġs l
Ġre view
Ġgu arante
Ġs till
re ct
Ġto tal
Ġ ide
A b
Ġsc he
pp er
r is
Ġaut h
em ent
m od
ow er
er ior
201 4
an e
Ġag ain
ĠIn telligence
i ers
Ġad versarial
aly sis
ut e
ir on
e qu
A S
oc ial
Ġwhe ther
Ġfe w
ĠThe orem
op tim
etwork s
ex ts
Ġspar se
8 2
Ġl o
Ġrequ ire
7 2
ti g
Ġext end
ver se
lis hed
Ġ200 4
Ġbe ing
Ġn ext
Ġver sion
ial og
ĠA t
0 6
ribut ed
Ġknow n
iv al
ĠA ll
o le
y m
app ing
sh op
i ble
ĠAn d
Ġexist ing
Ġm arg
Ġdisc rimin
d ata
re ad
app ro
divid ual
ig u
E N
cl usion
Ġconst ant
P R
ĠTh us
0 9
CL R
ĠT echn
Ġass oci
Ġh old
201 8
ar ly
5 9
Ġconvolution al
Ġ: =
an i
in force
Ġstatis tical
Ġcomput ed
b ack
i i
Ġmaxim um
h ttp
ĠLi u
Ġm echanism
ĠSci ence
Ġg lobal
ĠĠ Ġ
if y
Ġsignificant ly
is ts
Ġvari ous
0 2
g ing
Ġproper ties
Ġa ct
Ġx i
Ġ200 3
Ġacc ording
v al
Ġclass es
Ġbe hav
Ġbound s
em ma
Ġh ypot
7 1
y s
Ġt ri
4 6
Ġapplic ations
Ġextr action
Ġa ble
Ġstrateg y
inforce ment
8 1
Ġin du
Ġenti ties
Ġupd ate
Ġresp ect
Ġin t
r ases
Ġ ill
v iron
Ġre ad
Ġn um
Ġr ule
en di
ap h
O R
Ġinclud ing
Ġlabel ed
en ess
un ing
Ġtrans l
Ġr ules
Ġdif ference
Ġs k
ari es
endi x
Ġst udi
Ġachie ve
is ing
Ġ) )
Ġdeterm in
Ġrem ain
re te
Ġdif fic
ot t
Ġno vel
Ġf uture
Ġlarg er
Ġf our
iv es
t ings
pro p
Ġproced ure
201 3
Ġe ither
ĠSt atis
Ġph rase
let e
0 3
ĠM ethods
su b
5 4
an y
Ġinst ead
Ġcapt ure
A E
mp irical
in a
Ġinter p
A L
el ines
ren ce
av id
Ġl ink
Ġal tern
ab ly
Ġc alcul
ĠF ig
Ġtim es
Ġp op
ĠM ark
ic ation
a f
ly ing
Ġne ighb
ĠP h
Ġon line
Ġques tions
ĠS ince
Ġe p
ĠM ulti
if feren
Ġro w
Ġapproxim ate
Ġp ot
Ġsuc cess
Ġrequ ires
g r
Ġemp irical
d o
m ost
6 8
us e
S h
Ġsyn tactic
orp or
Ġgro und
n o
Ġt ake
Ġdire ction
know n
4 3
Ġapp ear
Ġstep s
res hold
Ġdomain s
les s
Ġn ow
) ;
ol ing
ens or
olog ical
Ġrep l
ĠR ep
Ġaction s
Ġreg ion
Ġz ero
Ġcandid ate
Ġd ep
ĠH u
Ġ5 0
Ġf ilter
b it
Ġiter ation
Ġcol umn
Ġbl ock
Ġsum m
word s
Ġag ents
ĠAr tificial
em s
Ġy ield
Ġdoc uments
l it
Ġmat rices
Ġtechniqu es
Ġintrodu ce
The orem
Ġcomm un
Ġcont inuous
Ġl et
Ġlex ical
Ġin dividual
6 3
c or
t rans
Ġvari ance
Ġgener ative
ing er
Ġh ierarch
Ġexp licit
ĠE M
Ġpar allel
Ġcomput ational
Ġf inal
Ġallow s
Ġf in
Ġg et
ves tig
Ġam ong
S S
Ġrec ent
Ġs oft
Ġind ependent
Ġm o
6 2
ec ess
ines e
du ct
Ġselect ed
Ġunder stand
Ġpro of
Ġidenti fy
ore d
Ġm on
Ġpro cessing
sc ale
an c
Ġo ccur
L L
ĠW ord
enc ies
A d
ver ag
Ġwork s
Ġregular ization
enti ally
d ec
Ġtrans form
Ġd ialog
ĠE ach
L i
R F
Ġr ight
Ġuse ful
ruct ure
qu e
L T
Ġsh ort
s ent
ĠI CLR
sis ts
at ures
Ġconsid ered
Ġbu ild
Ġh ttp
Ġdec omp
ev al
ĠDe ep
ĠC NN
ĠMe eting
f unction
r ight
Ġfe ed
Ġenc oder
Ġpost erior
A P
Ġ here
lo it
Ġsu pervised
Ġus ers
trodu ction
g ments
Ġdiscus s
Ġh ard
ic tion
4 7
Ġconstrain t
Ġl ist
train ed
Ġmean s
Ġrandom ly
ĠPro c
Ġform ul
Ġm ust
4 2
Ġeff ect
ĠP a
un g
Ġemp loy
perim ents
201 1
Ġc le
Ġcan not
Ġm ention
Ġprovid es
d omain
our se
b ers
r ist
ĠS c
Ġpresent ed
Ġdenot es
Ġex per
ĠA c
ĠB ayesian
5 7
C NN
Ġre f
Ġg ram
tic ally
ĠR NN
ĠC ar
ĠThere fore
c hes
Ġill ustr
Ġatt ribut
us ing
ed y
sp ace
Ġret ri
u es
Ġinclud e
ling ual
c ertain
Ġtrans fer
5 3
for d
9 3
R es
Ġlik elihood
ĠA CL
Ġad ap
Ġad apt
Ġle ft
is k
5 8
ĠF irst
or tion
Ġd raw
4 1
Ġ1 6
b i
Ġen viron
Ġsc ale
et y
ĠW hen
Ġm is
ent al
Ġexp ect
ub lished
Ġpo ly
Ġdesc rip
Ġuni form
os es
ĠG ener
lik e
w ays
ore tical
g ra
f it
0 8
ĠE mpirical
ter m
o y
to p
C omput
Ġan other
Ġs ense
ĠU SA
A I
201 2
si tions
E M
om ial
Ġerr ors
Ġadd ress
Ġcon ditional
Ġ200 2
Ġresul ting
Ġre fer
Ġoutperform s
as ter
Ġassoci ated
Ġl ast
Ġset tings
or ph
9 2
Ġprovid ed
oc ab
ĠWork shop
ens ity
ir d
paramet ers
ĠB y
ĠD ata
l ayer
9 6
Ġequ ival
Ġm ark
I F
I PS
ord in
os en
I C
a el
Ġarg ument
ect or
Ġc ent
5 2
Z h
Ġwh at
ĠNe w
ul ly
Ġbe fore
Ġimprove ment
il i
Ġcompon ents
Ġcontr ast
Ġcon sists
Ġun supervised
di tions
ĠG iven
Ġmean ing
S e
Ġinv ol
Ġm ix
ĠF urther
Ġeffec tive
pro blem
Ġu pper
rep resent
eng io
Ġa ff
Ġassump tion
f ied
Ġin vestig
Ġpre cision
Ġcompon ent
erm an
201 0
w it
Ġret urn
5 1
le ments
el s
Ġun its
model s
Ġp res
D E
s tit
im e
re c
rop y
1 99
0 7
sk y
l ies
p ri
g raph
9 4
L M
m it
U C
n orm
ĠF inally
Ġab s
Ġexp ression
Ġdesc ent
Ġhypot he
Ġcho ice
ocab ul
j ection
Ġex ten
Ġdetail s
Ġgraph s
at er
Ġv ide
Ġ1 1
Ġiter ations
CM L
ber t
l in
Ġtemp oral
o id
6 1
Ġvari ational
Ġis su
Ġs em
l i
ĠG e
Ġh owever
x t
H e
en ch
Ġbel ie
u an
over y
Ġobser ve
Ġs ocial
g o
ar Xiv
Le arning
Ġv olume
ber g
en n
ot s
Re ferences
Ġprac tice
Ab stract
ag n
ĠWh ile
Ġinc orpor
label ed
Ġbi as
Ġch ange
Ġmatch ing
or ld
e an
Ġth reshold
ffic i
9 1
t est
u c
Ġm et
d es
Ġrelations hip
Ġobjec ts
st ep
s pecific
Ġachie ves
Ġrecur rent
I G
ĠN o
M L
Ġsm o
al gorithm
Ġco m
un e
on se
Ġsol ve
ĠM in
N e
Ġdemonstr ate
Ġc aus
Ġp ower
sid er
Ġannot ation
ri es
Ġch ang
cl ass
ĠF e
Ġed ge
Ġm akes
vari ance
Ġl iter
Ġsyn the
ench mark
9 7
Ġr ather
d s
S P
Ġtran sition
Ġm ight
Ġsc en
Ġf ully
ur istic
ut ter
le c
% )
Ġed ges
s ity
ĠR d
Ġ| |
Ġreg ret
Ġar tic
c o
Ġn ecess
Ġagain st
Ġprodu ct
d ataset
inc ip
Al gorithm
rain ed
ĠM c
Ġpo sition
Ġrest ric
rain ing
ĠG u
Ġmetric s
Ġdescrib e
LE U
g reg
ik ip
Ġtop ics
Ġco re
ac tive
ĠG ra
Ġalign ment
ocabul ary
Ġse en
Ġn am
Ġr ange
t ure
te mp
Ġtest ing
Ġ1 4
Ġof f
ug ment
al k
D D
Ġnot e
is y
Ġrepresent s
h as
Ġchall eng
Ġintrodu ced
Ġtok ens
per s
Ġtre es
Ġg ame
Ġ3 0
us ed
ĠP o
Ġtok en
e ff
Ġ '
Ġcont ent
ĠP er
R R
Ġpattern s
Ġmeas ures
Ġinterp ret
9 8
valu ation
Ġ el
Ġ. .
Ġad vant
tern al
e ech
ĠA ut
ikip edia
Ġsequ ences
Ġgeneral ization
Ġcont ribution
ĠI m
Ġw id
Ġre inforcement
ĠE u
Ġthe ory
he ma
jec tive
Ġcall ed
iz er
Ġl ine
L U
Ġa im
t le
ĠD isc
Ġbehav ior
Ġwh ose
I S
ĠApp endix
Ġpredic tions
Ġannot ated
Ġc ertain
C V
r ary
u i
c omput
ĠG P
Ġrele vant
h ave
su ch
Ġcorp ora
Ġobserv ations
ti ves
Ġsmall er
b ound
ĠD an
p ages
Ġperform s
Ġal ways
Ġt akes
z ed
yp e
M odel
Ġsegment ation
st e
Ġf ac
in ter
Ġpar ser
ĠCh inese
ec tions
Ġcl os
sid e
Ġm ap
Ġstruct ures
Ġc ode
Ġdec oder
Ġrel ative
g round
g est
ĠO ne
Ġsh ared
p osition
Ġprobabil istic
ĠP at
R ec
Ġd rop
arg e
Ġ1 3
ĠAn alysis
Ġperform ed
Ġindic ates
Ġcomput ing
| |
or ation
Ġb ase
lement ary
R NN
Ġoutput s
Ġexp loit
p redic
Ġcon ver
ich ael
aj or
Ġhe ad
Ġb ene
ĠB i
Ġcon ditions
Ġvalid ation
ĠB engio
re am
i ang
at en
paramet er
ig en
ag ation
I M
O C
tiv ity
ifferen t
i ally
Ġsp lit
Ġide a
di ents
en al
or ies
Ġextract ed
ĠJ ohn
ĠU sing
ĠOp tim
Ġ2 5
cl assi
G AN
b in
Ġdevelop ment
Ġover all
Ġestim ator
Ġpredic ted
Ġrank ing
e ti
ĠM on
Ġb atch
Ġm apping
Ġg ives
i ence
Ġinte gr
a im
Ġcl ose
lect ed
on ly
Ġbas elines
Ġcluster s
Ġra ti
Ġun it
Ġass um
R el
C l
Ġy i
ĠY ang
w ay
certain ty
m at
ĠA g
s y
ĠE qu
Ġdec re
Ġproper ty
ub lic
Ġcho ose
Ġsmo oth
ĠP r
valu e
ĠMore over
Ġv s
Ġlik ely
Ġm ade
IN G
n d
Ġch osen
e h
Ġcon cept
ĠD avid
Ġ.. .,
Ġhypothe sis
NI ST
ĠA lex
Ġspec ial
. -
P ublished
sk i
I ON
Ġstructure d
Ġf am
Ġno un
Ġcategor ies
f ies
ĠW ith
Ġcorre lation
mer ic
for ward
Ġh ist
Ġex ists
Ġthere fore
Ġg ain
re w
' ,
Ġcombin ation
Ġbel ow
Ġro le
m s
Ġprodu ce
Ġsamp led
Ġsu per
Ġthe oretical
Ġsimp ly
ollow ing
A D
Ġal ong
ĠRes ults
Ġrec all
y mp
ĠS imilar
y i
ĠHe re
r iter
C E
er g
le y
Ġobserv ation
ww w
Ġc he
Ġachie ved
R U
Ġp ass
Ġprobabil ities
Ġl inguistic
ĠMark ov
In troduction
Ġar bit
Ġatt ack
Ġscen ari
al og
AA I
b as
w ork
Ġg ive
os ing
Ġrequ ired
Ġ200 0
Ġcomp osition
Ġhierarch ical
Ġrepresent ed
ste in
Ġt urn
Ġd ensity
ur b
Ġlex ic
Ġe lements
C o
Ġdynam ics
Ġstatis tics
W h
se m
Ġdisc rete
ress ed
Ġr isk
p ect
rit ten
Ġspe ed
ari ly
Ġm ajor
A r
Ġexp on
Ġauth ors
or th
ĠP OS
ĠI mp
ĠA AAI
Ġf ast
Ġhe uristic
Ġsu fficient
Ġb enchmark
Ġdist ributed
om es
Ġevalu ated
Ġenti re
Ġp e
n umber
Ġto ol
Ġreport ed
Ġlimit ed
v olution
Ġs qu
Ġimport ance
U n
d et
ĠB o
ĠJ oint
200 9
Ġinput s
Ġg e
er ing
Ġcon duct
ĠY u
k e
Ġf ield
Ġconsist ent
pr inger
ig ram
G E
t a
Ġde g
ati al
ac le
amp ling
Ġincre ase
O M
ĠS te
Ġdiffic ult
Ġfin ite
cep ts
Ġparti tion
Ġev ents
Ġd iction
Ġph rases
Ġre const
dist ribution
Ġdifferen ti
t ag
Ġ ens
av ing
he st
Ġ20 01
Ġ( ,
ĠH uman
Ġv i
Ġd own
Ġj ust
Ġbound ed
a res
m ethod
Ġf ail
Ġweight ed
Ġad op
Ġco ordin
t wo
Ġequ al
Ġadapt ation
m on
ĠQ u
man n
Ġapplic ation
si ze
ĠC or
Ġexperiment al
Ġclassif iers
Ġp ur
Ġsol ving
ful ly
Ġautomatic ally
h an
Ġdisc ourse
ward s
Ġwe ak
con vex
I t
S C
Ġon es
c u
Ġredu ce
ĠD ist
ad d
s um
sion s
C T
on ym
al i
ĠN IPS
Ġsp ect
) ).
g u
Ġresp onse
sequ ence
Ġgram mar
Ġx t
Ġ1 8
now led
Ġspe ech
Ġrem ov
meric an
Ġsug gest
Ġre ference
Ġm ov
B M
re ement
A ck
Ġimpro ves
ĠB ar
} ,
Ġenviron ment
ĠN etworks
rist op
I D
tiv eness
} .
Ġno isy
Ġlo ok
Ġimplement ation
Ġdi ag
Ġhold s
Ġexpl ain
h i
y er
Ġpr incip
ĠRep resent
med i
le arn
b etween
Ġ utter
fy ing
Ġdynam ic
Ġequival ent
Ġfrequ ency
Ġcorre l
ec ause
rid ge
oc al
pecific ally
Ġ ess
Ġcorrespond s
n omial
Ġt able
Ġimpro ved
s imilar
ĠSu pp
Ġind ex
Ġredu ction
c s
Ġrati o
Ġst ar
Ġv ocabulary
Ack nowled
ous ly
f act
Ġam ount
Ġpr im
r d
Ġfact ors
m ulti
ind ow
Ġus ually
Ġs elf
Ġsche me
Ġav oid
ĠThe y
Ġg old
ap e
ĠS m
Ġt ensor
Ġliter ature
Ġad j
in ion
n on
pp ing
Ġdefin ition
Ġpri v
c he
Ġe f
Ġsupport ed
th an
ar ing
em b
Ġincre asing
Ġlead s
ĠLe e
we ight
Ġpot ential
Ġvide o
The re
olog ies
Ġth ough
ĠRe g
Ġ199 8
Ġtyp ically
Ġsimp l
Ġ1 7
ik ol
pec ially
Ġdimension s
Ġincre ases
Ġsim ul
f ace
Ġpro jection
Ġsummar ization
Ġop en
w orld
en tions
Ġm aking
st ate
P T
u mp
pro b
Ġunderstand ing
ĠFurther more
N ote
en ge
al so
Ġag greg
Ġc ell
Ġsolution s
hen ce
om as
Ġp enal
Ġtra ject
ĠB l
Ġinf lu
t urb
Ġretri eval
it ed
Ġf ar
Ġtechniqu e
ic es
y le
ific ation
k s
Ġthe orem
ĠĠ Ċ
ĠM T
b ank
O n
res sive
ĠL u
Ġb and
Ġminim um
d isc
ĠM o
hen g
Ġst art
Ġcomp lete
Ġinterest ing
Ġver b
Ġestim ated
sh ow
Ġm aps
ĠA b
Ġun known
Ġc ar
hu a
il ing
Ġmarg inal
Ġd id
Ġcon vers
Ġro und
O L
Ġe igen
Ġa ugment
op e
Ġf ine
Ġent ropy
optim al
Ġcol lection
Ġstudi es
ristop her
Ġsign al
ĠE r
ro up
IF AR
now ledge
re y
olic y
Ġv an
O U
Ġt e
S D
w are
omm end
at t
st ructure
ĠR el
Ġch ain
i ra
re m
tr act
Ġe lement
er ial
z i
Ġquer ies
Ġcategor y
Ġt end
amb igu
orp us
m id
et er
Ġr ates
ĠV ision
fin ition
Ġa u
Ġeas ily
Ġconn ected
Ġind epend
Ġt we
ĠL in
Ġ #
par se
ĠS emantic
ra d
Ġestim ates
Ġaccur ate
Ġ3 2
Ġgra dients
v ent
Ġunder lying
e ep
A G
x k
Con ference
ab or
ĠThe ory
S p
Ġre ce
get her
ĠN LP
mm etric
Ġto gether
ri v
ur g
Ġab ility
Ġep och
Ġsemantic s
g an
int on
id es
Ġstrateg ies
ic ro
Ġpop ular
Ġs ide
Ġdec oding
Ġv ary
lex ity
c le
Ġconst ruction
Ġtr uth
L et
Ġp ix
ĠR o
ill ion
Ġa verag
Ġac tive
M I
Ġmo tiv
Ġannot ations
sc ore
om in
ĠS pringer
ĠS VM
M C
ĠM ichael
Ġarchitect ures
l and
Ġpro ve
i am
Ġhigh ly
og raph
perv ision
ott om
Ġne ur
P ar
Ġdifferen ces
Ġit ems
Con clusion
Ġassump tions
Ġadvant age
Ġpolic ies
Ġreg ard
ec k
Ġp ol
.. .
ch o
N o
Ġco e
p oint
Ġsug ges
Ġm orph
Ġsumm ary
l anguage
Ġimp licit
Ġre d
oc ation
con t
Ġd el
ĠP ress
al ized
b l
ig ur
perim ental
s es
w hen
ĠM ax
ight ly
ak en
ĠW ikipedia
ĠEqu ation
S ection
e i
ĠL emma
c c
Ġc oll
Ġ2 1
v an
ar ison
ĠS econd
Ġconc aten
Ġw r
Ġf aster
s ist
mod ular
m is
Ġto o
ĠR ob
C omp
c ase
ĠHu ang
r or
sent ence
ĠE valuation
he l
Ġlabel ing
Ġ2 2
ĠB e
Ġparti al
ich ard
ĠTrans actions
ap ter
the n
Ġtag s
E D
Ġin fer
Ġs ens
ru c
Ġimprove ments
S R
Ġt exts
Ġa round
Ġm ess
Ġg ames
ĠF rom
Ġc riter
En glish
ĠB LEU
Ġaltern ative
Ġguarante es
st ead
Ġpro ject
ĠD es
A ss
Ġev idence
s en
appro xim
( ,
id ed
Ġgener ating
Ġbec omes
fin ed
perform ance
in formation
l ate
Ġ4 0
Ġm ed
Ġenc oding
Ġin form
ĠA merican
ĠPat tern
Ġd one
Ġwh o
L emma
ĠX u
Ġs it
ell ing
Ġdepend encies
200 8
Ġdialog ue
Ġg ap
Ġarg uments
ne gative
Ġun labeled
H owever
Ġbas ic
Ġent ries
Ġhig hest
ĠM a
Ġlearn s
est ab
Ġapply ing
lic ations
Pro of
fe atures
Ġ ord
Ġdecomp osition
h ib
for t
wh ile
Ġspar sity
er y
ĠM anning
. )
Ġexact ly
Ġf air
Ġcon cepts
Ġdet ect
Q A
Ġnum er
Ġform ulation
ĠL ong
Ġco variance
ĠN P
Ġdist in
ction al
ikol ov
Ġwor ld
ud e
Ġdepend s
L S
fin ite
valu es
es tim
Ġupd ates
Ġpoly nomial
Ġgroup s
if old
ia o
Ġdep th
Ġloc ation
us h
Ġrec ommend
Ġsoft max
Ġed it
Ġfeed back
Ġchang es
op le
ffici ency
t or
Ġactiv ation
wit ter
read y
ar l
Ġcandid ates
g in
e ed
b est
Ġarbit rary
Ġderiv ed
re hen
ak er
ĠStatis tics
Ġeffec tiveness
z ation
Ġrun ning
Ġattribut es
h t
Ġen ough
ĠL ap
Ġdiction ary
Ġexplicit ly
Ġother wise
n etwork
Ġsp atial
Ġprocess es
Ġmix ture
b ut
sw ers
jec ts
B o
ip s
ĠIm age
st ra
ad a
ĠStatis tical
or ts
Ġnum bers
) ]
ĠS V
od ers
Ġr st
ĠP re
Ġexpl ore
g y
ĠR n
Ġaut o
Ġrep e
ack ing
Ġsem i
ĠS ub
Ġtrans formation
ĠModel s
emb edd
v ance
A CL
t ree
ĠC V
ĠS pecifically
Ġd iv
ĠAd am
ĠCh o
ĠZh ou
Ġover l
Ġ199 7
A t
d oc
ĠH ence
Ġcontext ual
Ġindic ate
ne w
Comput ational
P P
Ġappro pri
Ġexpl oration
Ġfind ing
d ifferent
ĠRec ognition
ĠS im
Ġres olution
pec ts
ĠP l
ĠAl though
Ġ2 4
Ġeas y
se ud
0 01
og n
Ġ2 8
c rip
Ġcons tit
Ġchalleng ing
un ed
Ġ hence
Ġdeg ree
Ġissu e
tic es
ari ties
me as
in y
N LL
ĠS et
Ġrec ently
Ġyield s
un c
Ġrel ax
N P
D S
ĠWe b
ĠM arc
Ġuni que
Ġconf idence
Ġimp act
Ġm entions
Ġun certainty
st anti
Ġk eep
ĠPa pers
Ġadd ing
Ġo w
s m
Ġo pp
c ol
Ġprac tical
ult ane
et ry
ĠI CML
Ġreason ing
if t
l oss
Ġs en
v ector
ar ity
ĠG raph
Ġpar ts
Ġrel atively
Ġoper ator
du al
di rect
m ethods
Ġinclud es
Ġd ual
w i
ati ves
Ġch ild
Ġdesign ed
le tion
ĠEM NLP
Ġ199 9
are st
Ġin equ
an not
Ġdenot ed
ĠB er
D C
e f
Ġy ear
Ġper turb
Ġw indow
i y
Ġ2 3
Ġnormal ization
on om
Ġco he
Ġstudi ed
ĠCh ristopher
Ġneighb or
Ġf ore
Ġjoint ly
Ġes pecially
ĠD ec
I R
ĠApp ro
V olume
al ing
ab ase
es ts
r action
Ġtag ging
Ġc ri
Ġfam ily
Ġcompar able
Ġacc ount
Ġf it
Ġprogram ming
200 7
a di
Ġimp lies
Ġcontain ing
ĠG AN
A B
the se
Ġform s
ill iam
Ġwe b
Ġtre at
el er
Ġres ources
Ġsub ject
Ġassign ed
Ġser ies
Ġinvestig ate
ĠS T
ul tim
gram s
W ang
http s
he ad
Ġde vi
G P
Ġhas h
5 00
Ġnew s
Ġs izes
Ġe mo
p air
Ġauth or
iling ual
ĠM NIST
Ġfor ward
ĠC omm
ĠS GD
c ome
Ġf ive
ĠG o
Ġcon verg
p a
pro cessing
Ġcombin ed
Ġdevelop ed
Ġother s
ĠD i
ine ering
T rans
ER T
Ġsatis fies
ac ed
ĠS em
ĠR L
oc cur
om etric
t ex
Ġshow ed
ĠO r
m ut
ĠD et
Ġpar aph
Ġp ublic
ob ser
Ġbelie f
Ġadap tive
Ġsynthe tic
Ġpar se
Ġpl ay
Ġal most
Ġ estab
Ġgener ator
n et
Ġsy mb
ĠK L
Ġne g
Ġex ec
E T
Ġadd ed
Ġnecess ary
Ġ ?
Ġgener ally
Ġor th
Ġle mm
Ġefficient ly
ĠK nowledge
Ġal ready
qu es
og le
Ġ2 6
Ġche ck
E S
AA CL
Ġf low
m es
ul ty
Ġdiscuss ed
W ord
Ġwh ole
Ġsequ ential
ĠM an
n etworks
S VM
Ġwhere as
Ġmod ule
Ġform al
Ġdeterm ine
Ġpl anning
Ġgro w
Ġ eng
Ġsu pervision
ons es
Ġmarg in
ran t
as c
f i
Ġh ad
re es
art ment
C F
am in
G iven
Ġt aking
Ġh aving
Ġop inion
end er
Ġph ase
an ford
al se
ĠN g
is s
Ġprevious ly
res ults
Ġmat erial
f irst
y an
cep tion
Ġac cess
Ġpartic ip
Ġlexic on
ĠS ut
Ġat temp
Ġcomp eti
Ġequ ation
Ġw i
b a
Ġpair wise
A pp
C N
ff er
ac her
Ġexpect ation
Ġmis sing
os hua
Ġt aken
ti an
Ġregion s
A ll
ell ow
ĠN etwork
Ġj ud
vers al
e k
Ġor acle
at tention
pec tive
ev alu
Ġcoun t
ra b
iz ations
b oth
Ġcre ate
l at
Ġlevel s
rel ated
Ġneed s
at ur
Ġchall enge
lik elihood
Ġanaly ze
Ġcont exts
Ġvari ants
Ġsl ightly
ĠT ext
ir ically
Ġconf igur
Ġmulti p
ac c
op y
Ġpredic ting
rop ean
Ġset up
C S
Ġoptim ize
sk ever
ĠAnd rew
ĠT ree
ĠW u
Rel ated
ĠCh ris
o per
x ili
ne ural
R G
Ġw ant
Ġbas is
Ġas pect
ĠTrans lation
ĠC IFAR
Ġtra ditional
Ġminim ization
O P
f ree
ric t
Ġcomp let
r ing
im um
ik e
Ġdescrip tion
en sive
ep artment
Ġextend ed
Ġkernel s
r andom
ccur acy
om en
Ġprodu ced
Ġpres er
ot es
ac cur
Ġspect ral
Ġsp aces
L I
Ġoper ations
ar s
ĠT op
ingu ish
S c
ĠIn ter
ach ines
Ġnam ed
xili ary
Ġperform ing
r ich
Ġimplement ed
Ġto wards
S M
Ġit em
ĠV ari
Ġet c
s ol
od ed
ĠTechn ology
h ard
S ch
s yn
Ġannot ators
L R
lic ation
s ign
ĠH inton
Ġbo x
s ers
Ġeffec ts
Ġ} ,
Ġre si
ĠT raining
ĠE s
out put
Ġdetermin istic
Ġreconst ruction
Ġw ritten
vari ant
as ible
Ġremain ing
Ġun til
Ġutil ity
Ġdraw n
p y
K L
Ġk ind
ĠS al
Ġinter action
Ġexpon ential
con sist
p ose
Ġm om
ĠZh u
p d
Ġdiscrimin ative
Ġnormal ized
ĠE l
me ans
S V
S ince
p ite
ect ors
Ġg rid
z ero
Ġpro t
1 01
all ow
Ġth ird
ĠS P
s ection
Ġass ess
sem ble
ro ad
y b
l or
d ependent
t ax
ĠS un
Ġas pects
ad ra
t u
Ġguarante e
ĠE d
Ġpredic tive
Ġas k
gra dient
Ġfram e
Ġan swers
C C
Ġpers on
Ġst age
Ġthan k
ener gy
Ġvari ety
b ase
Ġbel ong
B O
con text
Ġanswer ing
ĉ Ċ
C or
Ġex cept
Ġman ually
ĠJ o
Ġder ive
f ect
ĠCh ina
ric k
Ġrobust ness
Ġconstruct ed
ith ub
t arget
F inally
ĠA fter
Ġ2 7
ĠO b
Ġcomp ression
con n
S u
Zh ang
Ġro ot
Ġb id
ĠCh apter
S F
ĠS IG
ĠS o
Ġsugges ts
ve y
Ġde v
r un
Ġpl ot
Ġrun s
and s
h igh
ĠC an
Ġsub stanti
em ory
Ġcomp rehen
Ġm ove
ol s
d epend
ĠN on
Ġvari ant
I I
ov a
Ġdrop out
Ġsepar ate
Ġb al
Ġprop ortion
and er
l ight
Ġits elf
enc oder
imp ro
Ġresp onses
Ġa mb
the ir
Ġgre edy
ac ts
Ġdi vergence
ĠC ol
ur k
ĠEn g
Ġtext ual
ĠUn der
ĠP redic
Ġinflu ence
ire ctional
Ġoper ation
stit ute
Ġcle ar
R I
Ġsit u
Ġappropri ate
Ġ) ]
Ġlat ter
Ġwid ely
s ame
Ġsim ultane
Ġre ach
medi ate
O p
ath an
B i
Ġeffec tively
1 000
Ġsp an
se en
Ġag reement
He re
200 6
Ġidenti fication
mat rix
du c
Ġnon linear
sp eech
um ar
v alid
Ġmain tain
Ġne ar
Ġv is
Ġmention ed
at s
Ġy ou
Ġcore ference
Ġid en
al f
r ation
Q u
um ul
Ġtra de
C hen
s ample
Ġartic les
C P
g ithub
ĠT ask
Ġe fficiency
ĠOptim ization
ymp to
Ġexpression s
to ch
tim es
me an
Ġt rip
Ġpl an
Ġminim ize
B as
Ġin s
Ġco s
Ġpe ople
ĠSt ep
Ġinitial ization
Ġattribut e
R M
Ġcl aim
Ġman ifold
Ġmet a
paramet ric
Ġsc oring
reg ular
* *
Ġcomput er
ar p
T S
toch astic
ric e
in put
ow ard
Ġcalcul ated
sh ot
3 00
volution al
re lation
) (
r as
Ġens ure
ar a
Ġdetail ed
is ation
Ġneed ed
ar m
k o
iv ed
oc her
il t
P h
Ġfollow ed
in to
Ġgre at
Ġst ra
Ġlong er
Ġinter actions
Ġcol lected
s oft
Ex periments
ĠY ork
k a
Ġc ir
on t
ĠCl assi
Ġco ver
Ġf und
ag ent
y t
the re
Ġrec over
Ġpl ace
ne y
ĠM art
s ource
Ġbe gin
Ġ ign
Ġch ann
ĠS er
Ġan alog
ail s
ĠF ound
pro cess
Ġconsider ing
appro ach
Ġac qu
Ġx j
ĠA m
adra tic
es e
ec ts
Ġlat er
Ġh t
an ced
un i
g rained
ĠMat hema
w as
Ġdistin ct
Ġn ame
anc y
b urg
ĠA I
Ġcaus al
b ility
Ġtransl ations
M P
O ne
it ation
ro b
sp ired
Ġrepresent ing
agn it
ĠEu ropean
ĠRepresent ations
a ur
ĠT r
Ġp seud
Ġs ources
it able
B P
O T
P re
ĠĠ ĠĠ
i ous
err ing
prob ability
De finition
Ġrepl ace
g ed
form ance
clud e
Ġstruct ural
al ization
Ġcorrect ly
ĠCo RR
og ene
Ġredu ced
) ),
Ġcharacter s
z ing
g iven
Ġpre c
Ġp i
Ġal though
Ġdimension ality
Ġtwe ets
in st
} @
pp ed
% ,
od al
ĠS ing
ĠIn c
Ġdistribution al
Ġgeneral ized
Ġhttp s
ing ma
A g
ag raph
Ġreward s
ĠCon sider
ĠN ational
N E
Ġin verse
Ġab str
Ġwor se
Ġcompar ing
par t
Ġcoun ter
dition ally
ab s
f ram
Ġ1 000
um er
se man
om s
M F
her s
ri ven
fe ature
Ġcolumn s
i ro
sy ch
s ome
ĠS uch
ren g
meas ure
Ġprodu ces
ĠB a
Ġse ed
op h
Ġ energy
Ġfram es
ir ich
iti vely
Ġver tices
is ons
as so
Ġbec ome
Ġinequ ality
set s
Ġ. ..
D T
w ell
an h
ak h
irich let
Ġcol or
om bin
Ġgraph ical
Ġw ays
Ġindepend ently
D F
ch ron
B N
) |
ĠM DP
ĠD en
Ġcomb ine
y ond
a ult
Ġenc ode
Ġ6 4
st andard
Ġco verage
ĠR ichard
Ġhyper parameters
ĠPro gram
cl uster
task s
ĠS um
Ġdis ambigu
u ro
h ood
Ġlog istic
i od
Ġhand le
Ġc row
Ġt uning
Ġau xiliary
ĠN orth
Ġfactor ization
p olicy
Ġcontribution s
Ġsh are
Ġs low
ĠEx p
Ġpredic ate
Ġow n
ĠImp ro
An d
ail ment
ot ing
S L
c ient
Ġc y
ĠC oll
ĠTechn ologies
o si
amb ridge
Res ults
si vely
our s
vari ate
Ġrel i
il ib
( (
Ġdimension al
ti al
lic ity
Ġamb igu
M ulti
ĠSch mid
hen omen
Ġconstit u
Ġpath s
Ġm illion
Li u
Ġ2 9
Ġassign ment
H u
ĠR andom
Ġexpl an
Ġqu ite
4 00
te red
et ch
Ġreview s
ĠG erman
know ledge
Ġuniform ly
ib ility
Ġminim izing
Ġsatis fy
Ġhist ory
lec ts
le in
le ft
Ġconsist ency
R C
Ġshow ing
Ġdiscrimin ator
Ġb ilingual
Ġf ace
Ġno tion
Ġst yle
im age
ap an
t ype
Ġexten sion
Ġsub space
ĠPro b
Ġv ision
ĠComput ing
Ġex ternal
Ġver bs
Ġlarg est
Ġor gan
ma tical
ur rent
j i
ĠB oth
Ġcommun ication
Ġpo or
Ġman ner
ol a
Ġprop agation
P r
oun ts
Ġpo oling
Ġcommun ity
Ġrelationship s
a ut
) /
Ġw ide
Ġre ly
on es
O V
oling ual
il le
chit z
Wh ile
ev in
yb rid
t yp
Ġscenari o
ri ed
Ġb re
Ġm ut
Ġre ve
Ġcre ated
Ġformul a
et a
Ġemp irically
ĠSut skever
f ine
al ign
ro du
ach ie
Ġ8 0
ap tive
Ġdif f
I f
ĠG re
Ġcon j
at ory
+ +
e re
Ġa i
ĠP i
ir ing
ĠRe LU
tro l
w t
200 5
in ov
Ġrec ord
Ġp ick
Ġpro m
Ġcalcul ate
W hen
% .
ilib ri
or iz
ĠB el
Ġread ing
z a
Ġp ast
Ġst able
Ġint u
Ġext ra
Ġrec ogn
aw are
erm in
Ġ199 5
k y
ac ing
ĠM oh
ĠDan iel
s ampling
ru p
ĠU RL
ol ation
cor respond
Ġon ce
U niversity
re le
Ġincorpor ate
ĠL M
od y
Ġvari ation
Ġlearn er
200 0
F ig
ch ange
Ġn ature
E C
Ġs ay
ĠA T
v ectors
z er
Ġper mut
Ġst ream
Acknowled gments
d ing
Ġbene fit
F irst
Ġe arly
si mp
end ed
l arge
em ents
d is
Ġper cent
he v
Ġartic le
Ġepoch s
ĠK im
v ec
classi fication
Ġnot ation
Ġl ines
ĠCV PR
Ġpl ayer
Ġredu ces
Ġpop ulation
ĠAc c
Ġdat abase
re al
it tle
Ġyear s
trans lation
) -
mo oth
Ġdist inguish
Ġgener ates
C G
agnit ude
Ġ !
ĠS k
Ġapproxim ately
or rect
Ġl n
Ġmeasure d
D M
oll ary
d an
og onal
g roup
Ġexp ressed
Ġstar ting
sequ ently
Ġstra ight
Ġcombin ing
ib bs
Ġrow s
ill a
L anguage
In put
Ġneur ons
ĠO ver
Ġbe yond
ips chitz
is es
Ġsub modular
Ġsimultane ously
ĠB ern
ord an
Ġ{ (
Ġinclud ed
Ġver tex
F e
b atch
ol ute
Ġconstrain ed
Ġsh ape
Ġresi dual
Ġsol ved
D ata
pl ay
r ate
Ġdiag onal
N T
ation ary
Ġf lex
L inguistics
ĠC P
ud get
Ġd omin
Ġ vers
j oint
Ġmaxim ize
Ġst rict
ĠIn stead
ĠM ar
ĠP P
ĠY oshua
in i
Ġbo ost
E val
Ġb ag
ĠSimilar ly
ĠB en
R ank
Ġpro g
ik i
d if
Ġbe am
EM NLP
ec tive
ĠEx periments
ment al
Ġ5 00
Ġs a
ĠO ther
Ġsy mmetric
ĠSupp ose
f ier
ĠSe e
Ġupd ated
Ġ} .
Ġsumm aries
ide an
cl idean
Ġ199 6
fit ting
Ġare a
Ġstrong ly
Ġep is
Ġcom ments
ĠJ une
ĠTh at
Ġf alse
Ġb ottom
s pec
Ġexper t
Ġconverg es
Ġy t
Ġtest ed
T est
W S
B F
clud ing
Ġ3 1
Ġlog ical
us s
O r
D ataset
f old
ĠB as
si ble
bo ok
ĠComp arison
Ġs i
ĠG old
ers on
Ġst ack
Ġneighb ors
Ġcoordin ate
ĠK o
on i
Ġadop t
X i
Ġres ource
Ġne arest
Ġprop os
Ġdi versity
Ġact ually
Ġdiffic ulty
Ġutter ance
C H
Ġevalu ating
n n
Ġwor st
W ith
et ri
rit ing
M ore
R S
sm all
Ġdes ired
Ġindu ced
N ew
Ġm achines
ĠT witter
ĠZh ao
R P
doc ument
Ġnam ely
Ġemo tion
Ġissu es
Ġgeneral ize
Ġenc our
Ġpenal ty
Ġrestric ted
atur ally
ĠCon st
ĠA N
ĠLe v
ĠS yn
Ġpriv acy
h am
Ġremain s
b el
ĠI s
Ġcompeti tive
Ġback ground
Ġen semble
e g
ction s
G ener
Ne ural
l an
Ġpro f
reng th
Ġblock s
c hed
Ġvary ing
Ġar m
stand ing
ĠN MT
L DA
w ill
p ort
ĠWord Net
ĠWe i
dataset s
Ġscenari os
Ġtech n
Ġparticular ly
D isc
ĠR E
atch ing
ML R
ep t
amet er
Ġab stract
Ġy et
oci ety
Ġpresent s
ol t
B y
k i
Ġsupp lementary
Ġd ig
Ġ6 0
c rib
Ġex hib
ĠAl so
Ġappear s
Ġdi verse
G M
Ġm app
Ġiden tical
e e
Ġb road
th rough
Ġp henomen
ren ch
ogene ous
Ġcharacter istic
Ġbu ilt
Ġstr ing
Ġdetermin ed
Ġ( (
ĠFor m
ĠMon te
Ġreason able
Ġdirection s
ĠI C
Ġr ich
Ġ3 5
abil istic
Ġl ack
M ax
id enti
Ġph ys
Ġfilter s
Ġact ual
ig ger
red u
Ġf ree
Ġconver ge
Ġsimp licity
Ġparti ally
ĠSm ith
Ġfrequ ent
oriz on
NI PS
Ġrepe ated
ĠC RF
Ġdiscus sion
ĠEng ineering
Ġg en
udi o
The n
M at
O D
ok en
ĠW illiam
Ġclass ical
Ġcomp letion
ĠB al
Ġl ittle
it ing
h ar
ribut e
s ystem
the y
ify ing
ĠK B
m l
bo x
Ġmulti lingual
ad em
OU GE
ĠX i
se arch
ac ity
Ġmajor ity
R A
ĠS tochastic
Ġclass ication
ra g
ĠV er
Ġbuild ing
Ġoptim ized
Ġexp ensive
Ġcri tical
Ġt ests
Ġiter ative
ĠCh ang
u ild
Ġreturn s
Ġabs olute
P o
Ġestim ating
Ġaverag ed
D avid
Ġinter val
ex ample
am ed
Ġpers pective
pr ising
Ġidenti ty
h y
Ġpr on
Ġbelie ve
Ġmorph ological
T raining
t ra
ĠD o
Ġbound ary
P er
or n
I P
Ġ3 4
r ang
qu ality
Ġgre ater
Ġdevi ation
( |
G aussian
Ġsu itable
Ġmin ing
Ġhelp ful
at o
ĠEs tim
ĠAut omatic
av a
D B
ĠF ast
Ġminim al
n t
ĠS ome
prop osed
ot on
Ġacc eler
M S
Ġcl osed
Ġin ner
J ohn
Ġdecision s
un k
Ġf i
dec oder
Ġpar sers
l ocal
ust om
R T
al ities
Ġselect ing
Ġinc orrect
200 3
am a
iv ing
Ġcomputation ally
Ġconn ections
perim ent
Ġfocus ed
Ġinvol ves
E s
ossi ble
iny als
B ased
ect ing
Ġidentify ing
Ġin ternational
u ly
order ing
Ġ3 3
tr uth
ĠS I
EN T
es ter
ĠL og
Ġtraject ories
Ġpot entially
S ub
The se
ins ic
ĠT est
ĠC ambridge
Ġqu adratic
Ġh alf
Ġ "
Ġbl ack
represent ation
ĠIn te
g ate
prop agation
Ġlemm a
ĠN N
Ġscal ing
av ig
G ra
Ġper iod
M ethod
Ġpr uning
Ġmom ent
ent h
r ish
ffici ents
Ġmin i
seman tic
G u
ĠE T
200 4
I CML
ĠB ut
Ġm agnitude
Ġx k
M e
err or
Ġc are
de fined
Ġf igure
ierarch ical
ĠPer formance
valid ation
Ġpar agraph
Ġlead ing
osi um
g re
st ream
min im
Ġfe asible
Ġsur face
Ġwh y
p e
arl ier
Ġsc ene
de ep
Ġup on
Ġsh ift
Ġh i
ĠB ecause
Ġcommon ly
h and
ĠN Y
Ġrec overy
Ġinterest ed
Ġtyp ical
L in
Ġdepend ent
u ck
sh own
Ġsign als
Ġaut om
it al
ut put
OL ING
T op
Ġin ternal
Ġassum ed
Ġw alk
Ġinter v
ph rase
ĠM A
ĠL DA
valu ed
Ġinterpret ation
cur rent
Ġindu ction
Ġm er
Ġconsist ently
Ġconduct ed
z z
Ġprovid ing
Ġcho ices
Ġwork ers
ag ing
Ġidenti fied
tain ed
Ġtr y
x j
row n
gener ated
ĠJ ordan
Ġle verage
Ġinitial ized
I mp
d own
Ġrele vance
Ġc ut
Ġcriter ion
ultim odal
ynam ic
Ġcoun ts
ot o
su pp
Ġin ten
s el
Ġwr ite
ĠV an
os h
Ġra re
Ġd em
Ġpix el
fer red
er t
ĠD P
Ġfilter ing
Ġnumer ical
G G
Ġimpro ving
H S
ĠH ar
Ġcur ves
Ġ3 6
Ġtraject ory
Ġpl ayers
Ġorder ing
ove red
Ġloss es
ill er
S im
Ġ4 5
a ff
ump tion
Ġband it
ĠP A
Ġw t
ruc ial
Ġf ix
E q
Ġh is
Ġconn ection
ĠA D
Ġdepend ence
ut es
ac ob
po ints
Ġoptim izing
Ġdescrip tions
Ġaim s
Ġsuccess fully
ĠPro cess
Ġf raction
Ġestim ators
Ġdemonstr ated
ĠPro blem
p i
Ġmon olingual
D epartment
Ġcol lect
un ately
Ġ @
ĠR ev
Ġloc ations
in ess
ĠJ an
Ġun seen
15 0
Ġevalu ations
Ġ ri
di tive
Ġutter ances
ĠS ocher
e fficient
Ġ3 7
ĠG lo
Ġgener ic
Ġh app
Ġindic ating
C RF
ran ch
Ġdist ances
U s
ĠMin ing
in f
c y
Ġt up
Ġpseud o
S G
ent ence
b re
ĠK lein
Ġconvers ation
Ġconsist ing
Ġcap tion
Ġden se
Ġsing ular
Ġmess age
ĠD irichlet
al th
ĠM ikolov
Ġpre ference
Ġcontro ll
Ġutil ize
Ġstraight forward
ĠOp en
rab ic
ort ed
ex pl
ant ly
m ber
b ly
ĠIn stitute
c all
Ġ3 00
Ġper fect
Ġas ympto
m y
ot stra
l en
Ġoverl ap
f ollowing
Ġcompar isons
om etry
M in
Ġemploy ed
Ġspecific ally
ĠCo NLL
accur acy
ĠIn ference
Ġc i
Ġcapt ures
Ġe arlier
Ġra w
si tivity
In ternational
V e
ĠE fficient
an sion
d le
opy right
ag ement
Re g
imil arities
Ġ ir
Ġtr ack
ĠCar lo
Ġequ ilibri
O b
Ġenviron ments
Ġclos ely
ĠB ased
ĠC A
os ite
Ġr at
bi ased
problem s
con dition
Ġhuman s
Ġconc ern
es ides
ac ies
Ġde al
Ġsubset s
ĠG h
Pro cessing
S GD
Ġcle arly
C ar
Ġ *
f its
ĠQ A
Ġlog ic
ĠS ec
Ġintu ition
ul i
Ġcomp act
Ġad v
b een
ĠG ood
Ġmat ches
Ġcos ine
ention al
Ġind eed
Ġsepar ately
hu ber
y u
ĠL ex
con c
Ġb udget
with out
ĠLi ang
Ġnoun s
Ġp ati
De ep
ĠEr ror
ĠMe an
a e
T ime
Ġ5 5
Ġn aturally
Ġco up
ĠI N
et t
i tions
Ġ ],
I m
ĠSp eech
Ġse gments
w al
ĠN AACL
Ġlink s
ind ependent
Ġpres ence
an swer
Ġchalleng es
ĠS i
rele vant
Ġactiv ity
ĠR i
ĠEx ample
ĠClassi fication
Ġ) (
ĠJ apan
ĠS w
Ġsuper ior
Ġex am
ĠE mbedd
hes es
Ġpur pose
al it
r act
le i
Ġalign ed
F T
Ġcho osing
us sion
one y
Ġ( %)
Ġillustr ated
Ġ) }
P A
weight ed
an j
Ġen ables
onal d
Ġ199 2
ot al
igram s
Ġb r
Ġm ask
Ġst rength
Ġfac ts
ĠB ayes
ĠCan ada
Ġ199 4
Ġallow ing
Ġpaper s
Ġcomput es
Ġsyn tax
Pro position
M R
Ġprogram s
D an
Ġp ay
ĠAn other
Ġscal es
ĠGra dient
Ġent ailment
oward s
ar ra
l ength
ĠF ollowing
ĠTechn ical
ly a
Ġenc oded
Ġnecess arily
ĠAlgorithm s
ĠP et
ĠComm un
l a
Ġne ver
Ġcost s
an alysis
Ġ9 0
Ġmain ly
Ġcoe fficients
N umber
he rent
Ġ199 3
sent ences
structure d
ĠX ia
f ellow
B e
m ay
Ġretri e
Ġadj ac
Ġc rucial
Ġm edia
Ġrem ove
ĠI d
Ġm ode
Ġtransform ations
tr action
Ġorth ogonal
similar ity
ent ropy
ĠImage Net
Ġview ed
ri ef
form er
wh at
ĠL at
Ġn ames
Ġin tr
we re
com m
ĠSt ructure
Ġremov ed
Ġpo sitions
ds our
10 4
m ention
p lexity
Ġmaxim izing
RE C
ĠMart in
m arg
Ġqu ick
Ġpix els
end ing
ĠA ug
ĠM ost
rank ing
S U
optim ization
Ġcom es
Ġbehav i
Ġl and
rel ations
CM C
en i
w id
F rom
d riven
ĠP T
inc re
ad ig
Ġconc ent
ĠT im
Ġillustr ate
algorithm s
Ġdisambigu ation
Ġattack s
const rain
ĠIn troduction
ues tion
Ġcombin ations
ri z
Ġco ur
ĠJ eff
ĠJ uly
ud y
Ġmod ified
u el
Ġcur ve
Ġaff ect
Ġco g
Ġsens es
the w
Ġc odes
it z
Ġdif fer
Ġalign ments
Ġ7 0
conn ected
Ġterm in
ĠV isual
al ib
Ġent ry
as ons
Ġapplic able
b ra
el d
ĠEu clidean
o x
s mooth
ch ang
Ġb in
Ġsu ff
ĠP eter
Ġexpl ored
ĠS a
T ext
Ġsimilar ly
ĠG ibbs
ig inal
Ġfew er
ĠT ime
Ġinter pre
ĠUn supervised
Ġcohe rence
Ġst ability
Ġsuccess ful
top ic
g i
q i
Ġ %
w k
V AE
Ġm icro
Ġdec ay
o o
ĠS ign
an ish
Ġ) |
Ġexp and
on ent
Ġmo tion
Q N
p ass
Ġz i
Ġfund am
C I
ĠM IT
g ements
Ġsqu ared
ĠT wo
ĠM L
ĠS ociety
I L
ĠP CA
con f
n a
ti ty
ch aracter
v g
N A
ymp osium
de ed
ĠA P
Ġd ri
ĠF ram
enti ty
int e
ac hed
ĠSt anford
G e
id ing
Ġar t
Ġb it
Ġv ol
Ġs ix
ĠS ur
Ġfield s
12 8
ing ly
ip eline
Ġgram matical
Ġm ixed
Ġcorrel ations
c ategor
ĠPro p
Ġl if
Ġpron oun
AT ION
om ic
Ġview s
c orpus
AA AI
Ġdecre ase
p ost
ĠD ataset
Ġw in
con tain
ĠD is
Ġpre ferences
ĠOn line
ĠC ent
Ġop tion
aph or
Ġmechanism s
ĠH ow
ĠH am
Ġ und
ĠN orm
Ġinc omp
cep tr
Ġdirect ed
ut ing
ĠM or
ĠE C
impro ve
10 3
Ġspec ified
Ġapp lies
ĠR us
Ġro t
M c
ĠL inear
ser v
Ġt w
ĠD epend
In telligence
Ġinter mediate
ĠR oth
p resent
Ġrel ies
end s
Ġapproxim ations
ĠU ni
an o
u h
Ġro ugh
embedd ings
enc oders
Ġpro xim
25 6
D ec
Ġdepend ing
B l
ĠEx perimental
Ġcomp osed
U R
Ġ her
ash ion
Ġequ ations
Ġinte ger
ĠAt tention
Ġg ender
tu itively
s econd
chron ous
Ġt i
ut d
Ġ5 4
E r
Ġp ure
Ġrel ational
Ġhyper parameter
est on
man y
M D
ĠT s
ĠB ERT
Ġf av
Ass ociation
ĠV olume
ai ve
M ark
Ġsur vey
y k
Ġtr act
s l
Ġb all
Ġsen sitive
Ġneighbor hood
Ġfunction al
il es
Ġestab lish
Ġpercent age
Ġinform ative
ow ski
ĠCl ark
Ġc ustom
Ġprincip le
Th us
S H
Ġconf ir
ĠL arge
Ġ1 28
v ide
Ġsqu are
Ġpol arity
low er
Ġp age
Ex perimental
ograph ic
am er
ĠJ ames
a a
Ġregular ized
6 00
ter s
St ep
en k
Ġres er
Ġactiv ations
c ost
Ġlo op
Ġ4 8
Ġexper ts
D i
Ġl im
a verage
Ġcomprehen sion
ic t
ĠC he
y en
oun g
Ġ ~
ĠS MT
ĠAppro xim
Ġindic ator
Ġdisc overy
Ġn d
Ġan ch
Ġpredic ts
U sing
Ġ ve
Ġcent ral
off rey
Ġpredic ates
Ġsh aring
P OS
is ition
Ġsub stit
Ġmeasure ments
over n
Ġrob ot
ĠPh il
Ġsche mes
ot ed
Ġcap acity
M o
l ates
ĠRes Net
L u
p at
Ġhelp s
ĠM AP
ĠC ombin
Ġtran sitions
Ġsl ot
up ta
Ġstud ent
Ġbid irectional
] )
Ġx n
b etter
Ġconfigur ation
R ep
l ass
Ġst op
Ġel imin
Ġaverag ing
ĠCon t
R o
g ers
agn os
al a
ĠS il
Ġrecur sive
ĠJ ian
E L
Ġ4 9
is ely
Ġcriter ia
Ġge ometric
Ġc oding
Ġl ight
ĠJ i
ĠRec all
w art
res sing
enti fic
Ġhigh light
pair s
Ġext rem
dan au
g el
iz ers
Ġout l
ah danau
Ġsc i
eh n
Ġwid th
P a
ar se
Ġpriv ate
Ġse ems
on ical
Ġall ocation
Ġinst ruction
Bas eline
Ġ3 9
Ġte acher
Ġman ual
C all
Ġhe av
Ġref ers
Ġt ren
ma z
Ġcorre ction
Ġcell s
Ġdifferenti able
am m
Ġpo se
Ġpri ors
S imilar
ent y
ĠF ran
sequ ent
function s
ĠE D
ĠL P
par tic
Ġgain s
ĠJ on
im al
ĠE N
Ġcorrel ated
ĠSe qu
Ġf lu
ĠN ER
Ġsim ulation
ol ving
Ġvide os
ĠSchmid huber
ĠH an
ist ing
k it
Ġp rice
ret urn
Ġtree bank
B LEU
mo id
Se q
M achine
ig moid
T ask
Ġmut ual
m n
occur rence
ĠS imp
ques tion
C B
C D
as ser
ie ce
Ġdemonstr ates
ĠN umber
verag ing
h ig
te in
Ġsimp ler
ĠO N
bas eline
m i
ar ithm
to k
lec tive
Ġrese arc
t uning
T R
ro s
ĠModel ing
K DD
Ġeas ier
ĠLap ata
Ġpa rent
Ġprodu c
ĠRob ust
utd inov
A lex
Ġtool s
c ell
up d
g ressive
Ġst ationary
h ow
Ġre w
Ġhypot heses
Y ang
ĠP enn
NN s
con sider
Ġdescrib es
h uman
Ġmess ages
A cc
ak ers
G B
akh utdinov
ĠS y
gener al
t ech
bound ed
ĠFe atures
l ink
ĠAd ditionally
ev en
ĠJ ason
ni a
ind ing
/ (
h ind
ay lor
Ġs imilarities
ĠC orpus
Ġmaxim ization
Ġrat ings
il it
ĠF our
uk e
n ode
Ġrepl aced
Ġchild ren
Ġcon clusion
Ġro les
ator ial
requ ency
s ince
ous e
al ed
str ong
T E
us ti
Ġden ed
om ing
ĠV inyals
Ġin finite
ad ing
CA I
st ruct
: :
1 10
a ze
Ġf all
Ġredu cing
C un
Ġderiv ation
umul ative
x it
Ġbl ue
S N
dist ance
Ġs al
Ġh ybrid
Ġmodel ed
x y
Ġexp ress
rop out
Ġversion s
Ġu i
Ġsufficient ly
fort unately
Ġparticip ants
sc ores
Ġuni versal
ĠAr tic
s im
ĠAnd re
m ail
s amples
wit ch
Ġtarget s
O W
x iv
st atis
cor rect
uild ing
ni h
ĠH o
onym ous
Ġre asons
Ġincre ased
ĠS hen
es sian
Ġb its
Ġsubstanti ally
ĠApp lications
h a
const rained
in form
abil ities
embedd ing
ir t
Ġillustr ates
ĠL ang
w in
r ange
Ġdecre ases
ĠE L
P L
ĠSci ences
S et
r in
Ġbene fits
Ġan g
ĠM ethod
201 9
Ġoccur s
Ġcoe fficient
ĠS ymposium
Ġver ify
D R
ag en
ĠTh omas
Ġout come
Ġreview ers
Ġcomposition al
crip tion
comp lete
Al though
Ġsummar ized
Ġquick ly
ĠD a
ĠFe ature
Ġi j
ĠAug ust
B ar
ri k
ad er
Ġco me
Rec all
ĠV AE
M ikolov
ĠS earch
E valuation
Y u
v a
ra y
Ġvers us
ceptr on
ĠS G
ali for
com es
ac ro
E qu
Ġcl i
Ġcondition ed
lic ated
Ġcomplet ely
iter ation
S i
represent ations
Ġb rief
Ġaccur acies
Ġobjec tives
alifor nia
ĠM it
ash ing
Ġhe ter
ĠComput ation
Ġremov ing
pro per
S I
ill s
us ic
Ġess entially
.. .,
Ġincorpor ating
m achine
Ġrandom ized
Ġc ause
Ġaugment ed
ur ch
og ram
is son
ĠL ipschitz
jec tions
There fore
Ġpers onal
Ġcont inu
o ul
Ġqu alit
Ġh orizon
Ġdef ault
Ġ ith
Ġheuristic s
w ani
predic tion
in o
st ochastic
th ree
Ġrefer red
Ġexam ine
H LT
x n
correspond ing
Ġst ory
ĠS oft
n ual
at ches
Ġ3 8
Ġcharacteristic s
Ġo mit
ab out
Ġcontain ed
c a
Ġpower ful
Ġprog ress
en ing
Ġin variant
Ġconst ants
sing le
sen sitive
ĠG ram
gu yen
Ġrecommend ation
un ct
ot to
un s
if ies
se q
ĠCon text
Ġev olution
t ative
Ġp ut
ĠEx amples
Ġin ver
ĠN ow
ific ance
aus es
ar on
Ġpre vent
Ġintrodu cing
ĠSI AM
p ret
Ġt ax
P E
ĠAd versarial
N ow
Ġlinear ly
s ystems
A ccuracy
z t
Ġt it
Ġm id
ĠF in
ĠA tt
Ġdisc over
Ġmeaning ful
Ġred und
ĠIn deed
Ġmost ly
Ġrepresent ative
Ġquanti zation
et te
ĠA ccuracy
ĠGo ogle
ĠR ank
in itial
12 0
evalu ation
ĠC ur
velop ment
ĠR am
Ġsol ver
c er
Ġaggreg ation
Ġref lect
Ġspe aker
Ġp red
Ġ( |
200 2
Pro p
che ll
= "
Ġconsid ers
Ġexp ansion
Ġvari ations
ol i
s ur
approxim ation
c re
Ġperform ances
Ġad ditive
y e
Ġl ists
Ġin spired
ĠS am
des crib
pro vid
Ġstatis tically
ira ble
s qu
10 2
ĠWh at
Ġsatis fying
V er
Ġon to
ĠR oy
Ġ5 6
Ġsub jects
Ġrelax ation
c n
Ġf ra
f ix
ĠL abel
Con v
Ġprom ising
com bin
Ġpropos al
ĠG RU
S econd
Ġregular izer
Ġequilibri um
ĠR OUGE
ĠRo bert
ur ity
tellig ent
ra f
U S
Ġ5 3
ob jective
I ST
Ġbound aries
Ġsk etch
Ġassum ing
ĠN SF
i u
Ġsmooth ing
ĠP R
ell ed
Ġadvant ages
pd ate
Ġc ard
Ġb rain
Ġne arly
Ġfrequ ently
em ark
Ġt uned
Ġf l
ĠX iao
r ink
ĠT or
ĠN E
c over
ĠN ext
Ġpar adig
ĠK ernel
Ġallow ed
Ġre v
Ġr ang
Ġrough ly
F urther
Ġpro ved
ĠJohn son
sign ificant
Ġfundam ental
Ġl ab
id ent
Ġhierarch y
ĠW elling
k ov
Ġfocus es
po sitive
a fter
ti f
ĠS ong
ĠA rabic
p ath
Ġoper ators
Ġt ack
Ġmat hema
oton ic
ĠLap l
ev ent
Ġ9 5
Ġh om
T i
Ġar ms
ĠGe offrey
Ġdiv ided
o pping
ĠS ystem
call ed
ĠY i
ĠPar sing
ĠG ao
10 5
Ġcent er
Q L
Ġextract ing
ren ces
b ecause
Ġedit ors
Ġsemantic ally
Ġextrem ely
an a
) }
ĠAlex ander
ance ment
I V
Ġbe hind
G o
N ext
ed s
Ġc t
Ġsign ic
/ .
ĠT e
ĠT w
ak i
ĠFound ation
fram ework
ili pp
C O
Ġm ass
wid th
do es
late xit
ĠS parse
we b
G S
Ġscal able
ĠDist ribution
Ġcor rup
or ge
Ġiter atively
graph s
ĠE ven
Ġguarante ed
Ġsur prising
ge bra
Ġtr acking
show s
Ġra di
K ingma
ĠPa ul
obser ved
z h
Ġcon clude
pre print
Ġ4 3
Ġrank ed
Ġexplain ed
Ġattemp t
s parse
M SE
Ġb old
Ġmark ed
ĠI S
Ġsitu ation
Ġse em
Ġt ight
ol ve
Ġproject ed
ĠC ross
Ġsimul ated
In formation
per son
Ġa udio
Ġpermut ation
o sitions
ĠF unction
ĠIn t
Ġexp lo
we ights
Ġaccur ately
Ġef fort
F R
en ning
Ġb ad
ĠEx pl
r um
D ist
ĠS tr
ĠJ un
ĠI J
Ġmem bers
d ep
Ġconcaten ation
ro v
O utput
ĠSh ort
pri or
Ġmotiv ated
n ik
Ġman ip
tract able
Ġform er
S k
Ġac cept
ĠCon f
di re
k h
H T
Ġ ].
P redic
uch i
Ġon t
S em
pre vious
d ay
Ġparaph rase
ĠC OLING
Ġal one
E P
Ġus age
D es
Ġemp has
abor ative
hev sky
Ġs ec
ore tic
g en
em e
Ġhe ld
C R
Ġvi ol
p t
ex periments
ĠH ong
ĠK ar
Ġt anh
Ġth read
G RU
Ġgo als
Ġreconst ruct
Ġstrict ly
ĠIn f
ĠArtic ial
Ġco py
Ġmod ules
Ġun ified
Ġover fitting
Ġt ail
ĠF rench
as sing
Ġparameter ized
H uman
pro du
ĠD ue
r t
Ġweight ing
Ġrun time
um ing
Ġachie ving
asser stein
ĠW eston
ĠTree bank
v ity
Ġback ward
on a
ph rases
Ġexten sive
ĠC our
ind ic
ĠC alifornia
Ġadj ust
Ġaugment ation
riz hevsky
ĠH essian
Ġp ipeline
25 0
r and
Ġb ig
ĠCl uster
S yn
c ross
f ollow
Acknowled gements
re iter
S m
Ġchann el
ĠD u
ĠCon volutional
ic z
ĠPredic tion
Ġ199 0
imp ort
ĠRe inforcement
Ġbo otstra
Ġbo ok
f low
ĠK h
/ )
wo uld
Ġsmall est
ĠCNN s
z k
ĠUn like
Ġcour se
ound s
Ġemp ty
ĠF act
em ber
Ġpl ots
Ġclos er
Ġa way
Ġassum es
Ġinfer red
ĠCon v
l ong
Ġb ody
Ġconv entional
Ġf ill
Ġexplan ation
ed ical
Ġin side
om an
Ġtemp lates
Ġclassi fy
Ġg rant
U T
in cluding
Ġth ink
Ġz t
ĠDist ributed
ĠB ro
ĠPro position
Ġs he
Ġmulti variate
O ver
Ġse lects
Ġrece ived
ĠT urk
est ed
u ation
Ġupd ating
is her
Ġ4 4
Ġproduc ts
l its
ĠRec urrent
Ġcle an
och reiter
Ġperturb ation
8 00
L D
ĠM ari
P l
sp ect
Ġbre ak
V I
ĠThe ir
Ġsk ip
Ġ2 56
sp aces
Ġun biased
ceed s
ĠAss ume
Ġ7 5
Ġconfigur ations
m etric
y a
ect ure
Ġbegin ning
mis sion
c ap
ĠTh ir
pec tively
Ġform ally
Ġpredict or
s olution
Ġinvol ved
ac he
Ġide as
inst ance
annot ated
E ach
ĠRNN s
W E
um b
ĠMathema tical
R andom
osition al
Ġe i
Ġl etter
ĠM al
Ġtransl ated
ĠVari ational
Ġcog ni
Ġexploit ing
ĠProb abilistic
id el
lement ation
ĠC T
Ġtract able
c f
k in
Ġfore st
ul ated
Ġr ating
ĠF re
A F
consist ent
res pectively
Ġadop ted
Ġexec ution
h idden
ar ti
Ġob vious
Ġdep ic
inc ent
Ġins ight
Ġtransl ate
ĠGP U
ĠS pec
jec tives
v ia
ĠT ang
Ġden o
Ġdes pite
Ġte am
e per
Ġ4 7
we i
Ġcomp ati
Ġinterv als
it es
Ġacqu isition
re v
enning ton
ĠL ow
Ġcrow dsour
Ġf ed
Ġm ultimodal
in omial
the m
l arg
s a
ul ate
av es
riv ast
Ġprec isely
in ference
Ġintrodu ces
ĠA i
learn ed
ug e
Ġbound ing
S um
Ġprim ary
Ġdefin itions
rivast ava
ĠT emp
Ġle ave
Ġ5 2
Ex ample
Ġdifferenti al
he ther
Ġn et
ĠP y
ust in
ii i
Ġtr igger
Ġresearc hers
J ournal
ail ed
CV PR
Ġper plexity
str ateg
ĠY an
Ġincre mental
Ġj usti
ĠSal akhutdinov
Ġsp ans
N s
u j
u tive
Ġprop ag
Op tim
ifferen ti
Ġkind s
ri an
ĠN ic
Ġs ections
Ġcapture d
Ġin iti
ĠL o
Ġsome times
s ed
Ġsub sequent
ĠH a
sel ves
ĠH MM
Ġhash ing
Ġexper ience
etri eval
Ġrepl acing
ĠR ad
ĠSt ate
uc le
Ġdisc ard
Ġadap ted
c as
o j
ĠLat ent
N AACL
ar xiv
Ġrespec tive
Ġre ordering
Ġtr unc
typ es
Ġg ets
pre cision
Ġb ranch
Ġauto encoder
Ġcl ause
ĠT om
O G
Ġs igmoid
amp led
Ġtrip let
Ġcir c
ient ed
Ġprincip al
M arc
ib rary
ĠMat rix
c oder
Ġe mer
ĠS ocial
wart z
Ġwor th
mention ed
P n
Ġproportion al
Ġrem ark
L ong
H U
Ġcomb ines
Ġwr ong
ax is
ĠM LP
sump tion
Ġsatis fied
st age
Ġ5 7
ĠJ acob
term inal
cho ol
f ield
Ġchann els
Ġ 000
Ġcapt uring
Ġquanti ty
ĠT ra
M E
l ines
Ġinterpre ted
Ġrep orts
pro duct
ĠS N
Ġass ociation
Ġsa id
n ym
ĠM ay
Ġintrodu ction
ti tion
ĠR en
Ġturn s
Ġop tions
de f
Ġsynthe sis
] ).
t rees
mar ization
Ġscal ar
ob ject
maz on
ĠProgram ming
Ġsc ience
Ġapproxim ated
perform s
direct ed
g a
G re
ver b
om inal
ĠK n
Con sider
c ore
Ġeigen values
ĠT owards
Ġequ ally
Ġs w
Ġtreat ment
re me
at form
Ġst atic
ĠJ iang
Ġf ashion
av ailable
Ġ4 2
ut ral
Ġloc ally
L G
s atis
Ġn ets
Ġlimit ations
B C
re ti
Ġen able
Ġdefin es
as sive
Ġex amin
Ġintr insic
ov y
ĠIn d
Ġsuggest ed
ac tical
rip t
Ġmeasure ment
A CM
B A
fact or
Ġpublic ly
es h
lex ical
Ġe mb
ĠSim on
Ġflex ible
ĠComp ared
l ar
ent ang
ĠLe arn
Ġoptim um
ru g
ĠC O
X u
M NIST
Ġr ational
P ER
ĠRepresent ation
ĠS E
Ġsc ope
Ġde gra
Our s
ul a
ĠGener ation
ui tive
Ġ1 01
Ġsign ificance
th on
ĠE P
Ġtemp late
Ġan onymous
Ġobtain ing
Ġour s
r ated
the less
Ġover view
Ġt en
ĠD omain
Ġam ounts
n oun
Ġinvol ve
d emonstr
r ite
ĠO R
S ut
ĠD yer
Call um
ĠChen g
Ġask ed
Ġ5 1
Ġphys ical
V P
j k
Ġare as
ĠG lobal
riv ial
M A
Ġin ser
Hu ang
ĠF uture
ch i
se gment
ov sky
ij ing
ĠM et
ĠW en
Ġlink ing
Ġgrammar s
ĠAut o
C oll
Ġin herent
ĠC i
Ġsh ap
ĠM emory
ĠJ ose
no ise
Ex p
Ġindepend ence
ĠSign al
b an
Ġens ures
ex amples
Ġfind ings
L ex
Ġp iece
re ll
Ġf o
se par
Ġinvol ving
d a
A ut
ĠD uring
Ġreal istic
n odes
Ġ( +
ĠK umar
U N
og lu
T r
Ġsh if
k ernel
Ġa x
Ġoptim ality
Ġround s
Ġt ables
Ġle af
m ain
Ġapp endix
ĠLSTM s
v ille
norm alized
Ġ 99
Ġf t
ĠT ensor
Ġen h
N orm
Ġcoordin ates
Ġsymb ol
Ġincomp lete
l imit
ĠF rank
vers ary
ĠSing h
ĠI lya
as i
ĠA verage
ern and
ic ations
ĠImpro ving
ĠL E
ĠA k
1 12
Ġun like
Ġext ent
Z hu
Ġno tice
as m
ĠCo hen
J o
t rivial
Ġstrong er
Ġord ers
Ġsubstanti al
apt ation
Ġpossi bly
Ġpost s
ro gate
ten s
Ġfac ilit
d t
ĠH igh
Ġ4 1
ber ger
Ġtechn ical
vari ables
multi ple
h ot
mod al
Ġmov ing
Ġcan onical
Ġchang ing
Ġbi ases
es sion
if f
Ġfail s
Ġtrip les
ĠD A
Ġv oting
ĠRev iew
det ermin
ĠOptim al
K o
vari able
Ġnon parametric
Ġexist ence
St atis
I E
ĠAn not
Ġcap able
p ur
Ġpo ol
ĠH ierarchical
ĠF r
Ġthrough out
Su pp
Ġout side
max im
B ayesian
Ġtransform ed
ĠT i
ver ages
ĠO l
M a
ro id
Im age
int rodu
Ġtim est
Ġproxim al
res olution
term s
] :
Ġparamet ric
gener ate
a it
y ung
Ġsy mm
ol as
m emory
Ġsu p
ull i
. (
Ġin tractable
ĠRec ently
Ġtend s
ak is
Ġassign ments
h yper
D en
g t
Ġtax onom
ie u
Ġstar ts
iv re
ne ighb
ĠRes ources
A fter
org an
con v
e le
ĠE ff
I EEE
A not
f ound
ĠP ort
ĠL aw
O B
ason ing
erm ann
pl ace
Ġrequ iring
Ġef cient
et on
ore tically
Ġtwe et
D onald
l ab
us es
ass ign
lik ely
ĠD C
Anot her
si zed
us iness
Ġlog arithm
Ġpro jections
ult inomial
obser v
ĠZ heng
ĠK a
ĠI ll
c tive
ĠDisc overy
ĠJ ur
id er
Ġsecond s
Ġconstruct ing
M ean
Ġg ran
Ġc umulative
otto u
Ġm y
l av
l n
ĠAN D
ĠS C
hav ior
Ġser v
Ġsymb ols
k ey
W W
ever al
Ġconn ec
at ter
ĠA UC
Ġk k
Ġindic es
Ġinitial ize
g l
Ġl ot
Ġtri als
Ġformul ated
Ġbenchmark s
i as
ali ency
Ġlearn ers
ĠSp anish
Ġy j
an th
OM DP
du ction
ac ian
Ġreser ved
N on
icro soft
Ġinst anti
ĠGener ative
arch it
ish ing
Ġo ld
Ġco p
temp oral
Ġderiv ative
g edy
appro aches
Ġof fer
ott len
cont inuous
ĠAd aptive
Ġneur on
Ġambigu ity
Ġnot ed
Ġinvestig ated
Ġge ometry
uni form
im ages
Ġd ot
Ġr ights
Se e
ĠD as
ĠAdv ancement
Ġadjac ent
al es
ra p
ol k
res ource
ĠReg ression
Ġreli able
N S
Ġembedd ed
D L
Ġar ri
Ġminim ax
rest ingly
comp lexity
Ġexhib it
ĠM CMC
ad ed
Ġconstitu ent
Ġd ay
sh ould
Ġco arse
Comput er
r arily
Ġt ens
he me
Co NLL
on ents
ran sition
des ign
W ork
Ġpre trained
ma tic
ze gedy
Ġcomp ares
Ġal le
Ġsee k
ĠJapan ese
Ġr t
ustr al
o ulli
G s
Ġf usion
ogni tive
ĠK evin
ĠDe an
Ġindividual s
ĠM ur
ĠIn tuitively
ĠMathema tics
UC B
Ġperturb ations
op en
ribut es
Ġm ist
Ġchain s
Ġpol i
ĠGAN s
ĠG erm
Ġar tificial
re ly
Ġsystem atic
set ting
ĠId enti
ĠP an
Ġnorm s
Ch o
Ġpre ced
ĠAnn als
Ġmov ie
ba um
Ġenc odes
in ical
ĠM er
ex act
ĠK ingma
H MM
Ġw riting
ĠS z
Ġtra ce
p oses
n ov
P N
Ġess ential
ĠD ar
ĠG roup
Ġnon convex
Ġbal ance
ĠD ynamic
ĠS ampling
Ġh ope
Ġg ate
ĠD oc
Ġoptim izer
ĠV i
ic o
Ġgu id
ĠTw enty
sequ ences
ĠB esides
ram ani
ĠH LT
Ġimplicit ly
Ġminim izes
h ol
Ġtrans port
T M
is er
Ġdis ag
ĠW orld
N MT
Ġtre ated
Ġre ferences
Ġstud ents
aw a
medi ately
ell er
label s
c ode
F A
ĠP al
rish n
20 01
ĠUnder standing
ĠM od
ĠP sych
du e
Ġanaly zing
Ġaltern atives
ac ross
Ġanaly ses
Ġclassif ied
Ġclos est
j o
Ġarg max
ot one
af sky
Ġpre processing
M ichael
ĠPo isson
lect ron
Ġ199 1
ht ml
b all
w ritten
ĠAcc ording
Ġobtain s
Ġmed ical
X t
se mb
Ġmed ian
ĠK e
ĠTrans former
G raph
the tic
v y
ĠK ai
Ġsp lits
ud s
h aps
Ġspe akers
omp osition
ĠV ector
M ethods
ĠS an
Ġmapp ed
ad o
Ġbi ased
el le
ĠSem Eval
ĠEstim ation
Ġc asc
Ġaltern ating
Ad v
Ġfav or
si ties
ĠN ot
et her
cept ual
Ġexpon entially
tech niqu
ĠP ost
Ġ5 8
ĠFound ations
Ġestab lished
ĠJ ia
am ma
os hi
Ġph on
k k
R ichard
Ġsu ffer
R ob
Ġmodel ling
ul tic
A tt
et tle
Ġ4 6
hig her
Ġcl auses
it t
it ory
Ġmeas uring
Ġpa ired
Ġintegr ation
Ġ) ;
Ġsitu ations
ĠDepend ency
imin ary
Ġrece ives
ut ed
Ġdiscus sions
verag ed
p res
u ff
C opyright
Ġanaly zed
ec utive
ven ess
Ġc at
Ġsh allow
ac l
ĠEn tity
ke ley
Ġphenomen on
atic s
g ood
h aus
G R
ĠP ere
Ġn avig
Ġst ages
st er
I s
P i
it ch
arg ument
R emark
Ġgener ality
rec all
Ġcontrol led
E d
m t
We i
Ġcombin atorial
or iginal
Ġapp e
ĠK al
A m
st yle
j amin
us er
ĠL inguistic
ĠSV D
Ġthe sis
f ocus
w a
Zh ou
Ġband its
ĠL oss
ur ation
Ġstate ment
Re LU
Ġs tim
Ġc alib
ĠS n
Ġprot oc
Ġepis ode
E l
m ary
depend ency
olt z
Ġdist ant
ur IPS
ĠY uan
Ġgrow s
ĠR etrieval
ĠF ree
ni an
it a
mo yer
row s
Ġregard ing
Ġasympto tic
Ġpl ays
ole an
marg in
lic ative
ub e
Ġconv en
po oling
pa per
ĠD AG
and ra
ĠJ MLR
ix el
ri or
iv ari
ĠD ifferent
I J
Ġarg ue
ettle moyer
d d
Ġ) /
Ġun ion
Ġp t
Ġn ull
ĠAss umption
Ġn or
aa ai
Ġmark et
oph istic
ul ations
ĠD ong
I A
Ġ( -
C ol
S O
t ors
ĠGu o
Ġord ered
ri ol
ĠTop ic
ĠGold berg
Ġheter ogeneous
10 6
Ġper ceptron
Ġ10 4
K B
ĠL a
di ag
Ġtup le
ne ed
Ġlow est
ĠL ag
p ossible
ah ramani
ĠD ev
Ġrep rodu
Ġmultip lication
ĠR N
o ber
ĠMc Callum
Ġdec ide
Ġproced ures
Ġformul ate
c andid
r atch
Ġdecre asing
ĠF ar
B ack
ĠM C
ĠP eng
con trol
ĠColl ins
ĠY e
Ġeng ine
Ġsyn onym
go al
ĠEx traction
Ġexten sions
Ġb ases
ot yp
ĠO ct
Ġmod ern
Ġparaph rases
Ġprec ise
Ġmulti pl
for ts
Ġautom ated
ĠCon trol
ens us
Ġalle vi
bl ock
B L
Ġde eper
ade h
Cor ollary
ĠC S
Ġconj unction
Ġ19 89
col umn
S ystems
ĠO F
m ix
b ec
Ġfair ness
Ġover come
cluster ing
norm al
00 01
ĠQ uestion
Ġrequire ment
Ġde b
comp ared
W illiam
n atural
y l
Ġp ortion
h o
Ġar c
Ġread er
Ġfind s
Y i
burg h
Ġdiff usion
Ġpl atform
00 5
ss on
rep ancy
B ank
Ġs ort
Ġch ose
Ġsp oken
Ġcont in
Ġcohe rent
Ġcogni tive
Ġdetect ing
Ġalgorithm ic
clud ed
rec ognition
Ġf old
ic a
ĠV incent
tag s
w hether
f ind
con ditional
Ġcomp lementary
ĠJ im
s ampled
ad s
tr y
lic e
Ġanch or
j a
Ġad versary
A k
Ġattemp ts
ĠM ing
ĠW il
Ġdiff ers
5 12
Ġin cur
Ġrelated ness
ĠRel ated
Ġcy cle
ord es
Ġpa ren
Ġl aw
ul um
Ġdo ing
ĠReg ular
ĠB erg
Ġdes irable
par sing
Ġequival ence
ĠForm ally
Ġmaxim al
approxim ate
S ing
Ġf il
simp le
G erman
Ġpl aus
ĠSimp le
B S
ĠA R
d ev
h ic
cl us
ĠAut om
Ġcomp licated
Ġsummar ize
ĠWilliam s
n k
ĠS entence
ĠGood fellow
partic ular
Ġsen sitivity
L F
Ġn aive
In ter
M DP
o bert
ĠL ayer
ĠE ric
T rain
f r
ful l
ĠS entiment
Ġproof s
cl ic
Ġmaxim izes
ur y
Ġcurrent ly
Ġambigu ous
ĠI II
Ġcomput ations
do i
E p
sc ience
comput ed
ĠR m
ĠD T
onom ous
Ġboost ing
Ġsubstit ution
ic on
Ġ4 00
Ġarbit rarily
as wani
lo b
ĠC L
ottlen eck
Ġlarg ely
qu ery
Le e
Ġst opping
Ġgu ide
ĠP ear
Ġg ene
ĠP ol
ĠH ovy
l ayers
Ġst ated
lat ent
hy un
ophistic ated
ĠM any
Ġexp ressive
ever theless
K im
Ġdown stream
Ġdis e
ĠD eng
s ense
ĠI ter
( `
M ost
Ġmoment um
at ar
Ġdis play
Ġden e
exp ected
Ġdisc reti
ĠDec ision
Ġout comes
d el
ĠC CG
par allel
M B
res ult
Ġfrequ encies
ĠAr g
ĠB lei
ĠI R
Ġlimit ation
P CA
id irectional
Ġle g
Ġbal anced
orp ora
Ġinterpret able
Ġsplit ting
Ġconvers ations
ĠG i
enc ed
Ġqualit ative
ĠBi LSTM
H V
Ġ6 5
sub ject
ĠStep hen
Ġim mediately
O O
ĠP ark
ĠE p
i tive
ĠB ell
N atural
ĠW asserstein
Ġsur rogate
Ġquanti tative
Ġp ack
Ġannot ator
Ġlength s
Ġinterp olation
c ri
I CA
ir k
ob ile
Ġ` (
Ġst ore
or ical
od ic
ext ract
ĠM i
Ġ) ).
ĠAppro ach
ĠI ts
constrain ts
A verage
S emantic
ĠL ocal
ĠC ore
m uch
p ot
Ġrequire ments
Ġphenomen a
Ġintegr ated
ĠW ol
ĠJ in
ĠK or
du le
Ġmotiv ation
Ġtri ple
Ġcaus ed
Ġp ublished
f requency
Ġreg ime
rimin ative
L A
av uk
ĠP olicy
ular ity
ĠCh ar
Ġmin ib
Ġ $
Ġ9 7
Ġin telligence
Ġcharacter ize
rob ust
Ġs witch
Ch ris
Ġassign s
Ġins ights
Ġg t
ĠJur afsky
